#version: 0.2
с т
н и
к о
р о
р а
н о
т е
е н
н а
р е
п о
т о
е р
н ы
л ь
л е
в а
в о
г о</w>
р и
м а
ч е
с и
т и
к а
ц и
с о
п ро
л о
с ко
д е
л и
т а
м о
л а
н а</w>
в и
з а
д а
д и
о б
к и
г о
у ч
д о
б о
с а
м е
м и
т а</w>
ни я</w>
в ы
в ер
р у
л и</w>
ны х</w>
н о</w>
н е
т ь</w>
ст в
ст а
к и</w>
п ри
в е
и н
с ки
у ни
с е
с я</w>
с п
г и
ра з
но й</w>
уни вер
си те
ма р
м и</w>
к у
универ сите
п ре
ско го</w>
но го</w>
са мар
в а</w>
т о</w>
ни е</w>
ст и
те ль
ст у
л я</w>
но ст
г а
о т
о р
м ен
уч а
д ен
и с
п о</w>
т у
ны е</w>
д у
т ы</w>
п а
ф е
ст о
ци и</w>
ра бо
ко н
к а</w>
с си
л а</w>
ны й</w>
че ски
и з
х о
ш е
т ся</w>
о н
то в</w>
ско й</w>
е т</w>
п ра
л я
д а</w>
по д
д ля</w>
р ы
г ра
п е
университе та</w>
сту ден
ч а
щ и
е к
щ е
т е</w>
ло ги
те х
б ы
н е</w>
б е
пре д
ж е
ств ен
н у
с ь</w>
с у
е м</w>
в ле
м ы</w>
ш и
ле к
a d
з о
с ле
_ p
р а</w>
п и
ad _</w>
ро сси
ф и
ко то
ж е</w>
по л
_p ad_</w>
а ль
ф ор
и м</w>
ко в</w>
п у
ко с
ни й</w>
ро ва
на уч
б у
самар ского</w>
2 0
б а
з на
ку р
л ю
ч то</w>
к е</w>
б и
л ё
к то
ц ен
ко ро
п ер
на я</w>
ст и</w>
" ,</w>
м у</w>
ти в
ч и
до ва
то м</w>
и з</w>
сп е
про ек
ц е
л ен
ци он
ност и</w>
с ка
ра н
ны м</w>
чески х</w>
р ы</w>
ств а</w>
уча ст
об раз
ст е
с во
" .</w>
те ле
ко м
ж и
мо ж
к о</w>
н я
коро лё
л ь</w>
но е</w>
с а</w>
л о</w>
т ь
в се
ин те
ни и</w>
об ла
ю т</w>
ис сле
ра с
королё ва</w>
з а</w>
20 2
ски й</w>
д ы</w>
иссле дова
тех но
д у</w>
з и
у че
на у
ю щи
участ ни
гра м
ка к</w>
о на
ност ь</w>
образ о
э то</w>
че ского</w>
ф ер
техно логи
кото ры
та к
пра вле
но м</w>
да р
про грам
м а</w>
к ла
ро в</w>
ти я</w>
раз ви
в я
с по
во з
м ы
л у
образо ва
а ли
мо ло
е тся</w>
кос ми
ме ж
ци я</w>
в у
при я
з да
е й</w>
ть ся</w>
г у
а к
ш а
уча сти
в ля
н ы</w>
т ру
т ы
так же</w>
фор ма
ро д
ор га
o s
она ль
в ре
т и</w>
пе ре
че ской</w>
со зда
ме ст
п р
э к
ф о
теле й</w>
к у</w>
росси й
о т</w>
л е</w>
вы х</w>
_ e
ин сти
os _</w>
ну ю</w>
обла сти</w>
ре ги
д ер
го то
сп и
_e os_</w>
ни ма
д ни
рабо т
инсти ту
ст ра
а р
ро в
во й</w>
кон кур
к ры
ж ен
я х</w>
тех ни
орга ни
а н
пред ста
ни ю</w>
д е</w>
г е
з у
цен т
д ви
м у
фе д
202 5</w>
с е</w>
щ а
ка фед
г ла
о с
но в
го да</w>
б р
уч и
университе т</w>
п ло
ш ко
а ви
c a
со б
ма н
п ла
д ы
д о</w>
с ер
и мен
сто я
спе ци
ж а
хо ди
ско м</w>
росси и</w>
ти ки</w>
х а
ко й</w>
и х</w>
ст ь</w>
с вя
кто р</w>
во ди
и сто
те ль</w>
з ы
ва ть</w>
про фе
с ло
ка х</w>
э то
ст ро
ави а
= "</w>
ств о</w>
ри и</w>
но в</w>
с к
об ще
т ре
вы е</w>
ны ми</w>
з е
ч ен
ли сь</w>
ь ю</w>
ко ман
во д
студен тов</w>
ку ль
участи е</w>
ти е</w>
с ре
ме ро
р я
к лю
по бе
д ру
в то
го ду</w>
о п
по з
воз мож
рабо та
о д
ль ко</w>
под гото
ни ем</w>
ска я</w>
бу ду
ли ч
ин форма
на род
ст ру
меро прия
бо ле
кос мо
к е
фер ен
органи за
меж ду
0 0</w>
уч ен
де т</w>
да н
спо р
ст ре
го су
но ва
т ро
м е</w>
ма ти
кон ферен
с со
я ми</w>
от кры
эк сп
пр и</w>
на правле
ст во
ра м
в о</w>
б ы</w>
р е</w>
па ра
ни ков</w>
между народ
л ся</w>
те ли</w>
госу дар
самар ской</w>
со тру
к ти
по мо
са н
по да
ф а
об ъ
пи а
ин жен
си сте
под дер
дви га
г а</w>
ци й</w>
ве де
сотру дни
л лек
рабо ты</w>
ж де
е го</w>
ю тся</w>
самар ский</w>
во го</w>
бо ль
ру ко
ма те
т ри
образова тель
студен ты</w>
которы е</w>
но ми
бр я</w>
вре мен
с ы</w>
г ру
ро м</w>
рам ках</w>
предста ви
на ли
де ли
а лек
со ци
м ер
инте ре
за да
ст ви
чески е</w>
о н</w>
ни к</w>
э ко
т я
подгото в
в ла
боле е</w>
е ди
с т</w>
т р
чески й</w>
б ер
ре ктор</w>
учен ы
при ня
эксп ер
университе те</w>
ро й</w>
ль та
от ме
о ли
кафед ры</w>
сре д
ски х</w>
а п
н и</w>
т у</w>
н я</w>
вы сту
те р
у правле
ст ран
нау ки</w>
институ та</w>
про из
ч ис
государ ствен
ф из
де й
оли м
зо ва
к ре
ци ю</w>
т ра
мест о</w>
де ж
ка за
сп ек
ло ве
специ али
о на</w>
ре зу
олим пиа
де ра
t e
пол учи
ва ж
профе сси
че лове
я м</w>
у р
пра кти
ап пара
то лько</w>
ло в</w>
) .</w>
к ру
с фер
те н
резу льта
с о</w>
и ли</w>
г ен
на ча
раз работ
фе дера
л ы
в лен
ста р
ле ния</w>
ка ж
л ы</w>
ве т
ла сь</w>
авиа цион
с я
поддер ж
во про
б ли
r o
ши х</w>
ви ч</w>
по ли
у т
поз во
па р
ту р
та м</w>
ше го</w>
х и
ри я</w>
вы й</w>
физ и
по ль
в ы</w>
рас ска
разви тия</w>
м я</w>
инжен ер
ш е</w>
со стоя
моло ды
м но
вы со
бу дет</w>
с мо
побе ди
не й
уче б
оп ы
е в
ж из
со в</w>
до л
участни ков</w>
пре пода
ве ду
н ер
до в</w>
n e
де ми
де я
вла ди
б ла
э том</w>
ч но</w>
s e
ко р
б ле
т но</w>
го д
t a
я вля
конкур са</w>
а ка
управле ния</w>
т ных</w>
та ми</w>
ло сь</w>
че с
ци ональ
а вто
ни ки</w>
ско е</w>
науч но</w>
в се</w>
произ вод
об ра
ре ше
l o
ка м</w>
w s</w>
ств е</w>
препода ва
конферен ции</w>
m s</w>
ч и</w>
щ ен
имен и</w>
ака деми
цент ра</w>
т во
с лу
отме ти
ко ми
руко води
ком п
ос нов
об уче
г и</w>
ne ws</w>
ств у
ки х</w>
исследова тель
ь я</w>
ч ер
д ре
i te
про ш
ка р
" ]</w>
мож но</w>
л уч
са мо
бла го
г да</w>
o w
образова ния</w>
бы ло</w>
se l</w>
у спе
все россий
u sel</w>
технологи й</w>
програм мы</w>
вы пу
рова ния</w>
ite ms</w>
ре али
при нима
косми ческой</w>
дея тель
сан д
о те
lo g</w>
l ca
ca ta
у же</w>
влади ми
ro usel</w>
ow lca
) ,</w>
уни ка
те та</w>
ки е</w>
ра ке
ди с
1 0</w>
моло деж
ми ни
ка ми</w>
логи и</w>
cata log</w>
про це
к ро
та ль
та к</w>
сто в</w>
со ста
ри а
на в
вре мя</w>
алек санд
фор ми
ту аль
в не
эко номи
owlca rousel</w>
же ния</w>
ра то
ста но
проек та</w>
соци аль
ис поль
бы ли</w>
я зы
участни ки</w>
се да
дей стви
бо р
со ве
инте ллек
чен ь</w>
те ля</w>
ци а
на циональ
мен е
би о
ту ры</w>
о ри
в е</w>
со времен
самар ском</w>
ву зо
а э
э та
ти й</w>
с с</w>
пло ща
ко м</w>
ч а</w>
ку ю</w>
и то
дру ги
в стре
бы л</w>
сп ут
ак тив
ста н
ка че
3 0</w>
которы й</w>
ру с
м о</w>
стру к
ку с
си ст
п си
в мест
е в</w>
ва ли</w>
ст ри
ко ва</w>
фа куль
1 9
ю ще
2 4
за я
до кла
те ля
се б
он и</w>
гру п
вы с
но ва</w>
ющи х</w>
сист ем</w>
буду ще
аэ ро
нау к</w>
и ва
а т
ски е</w>
ф ро
м я
науч ных</w>
во л
расска за
пол ни
ж да
ше й</w>
ство м</w>
мож ет</w>
ж ур
о чень</w>
ко л
к ва
ч то
професси ональ
ми на
мы ш
исто ри
ди пло
пси хо
п ле
космо нав
ме то
до м</w>
ва ет</w>
ни ка</w>
за ме
зе м
г де</w>
н ен
площа д
не об
де ла
э нер
помо щ
ис кус
по свя
по ле
за ции</w>
ден ь</w>
ви де
щи х</w>
ност ью</w>
пра ви
пер спек
возмож ность</w>
та тель
у ров
тво р
но му</w>
технологи и</w>
клю че
е сть</w>
бе спи
сред и</w>
проек т</w>
рова н
ве ли
те к
пред прия
техни ки</w>
пе да
об е
я т</w>
ствен ной</w>
а нали
что бы</w>
то го</w>
про веде
ни ях</w>
свя з
молоды х</w>
ди ректор</w>
беспи ло
ча с</w>
ст а</w>
со бы
педа го
но вых</w>
ме р</w>
го во
вы м</w>
с с
ме ди
высту пи
все х</w>
про води
выпу ск
оте че
институ т</w>
ю ри
россий ской</w>
ш о
объ еди
сто и
подготов ки</w>
не т</w>
мате риа
се й
за ня
фи ло
т ран
рабо те</w>
профе ссо
з е</w>
че ская</w>
х ся</w>
реги ональ
по д</w>
д ми
гу т</w>
специ аль
д ра
федера ль
тель но</w>
от де
необ ходи
э лек
то ч
рова ть</w>
разви тие</w>
комп лек
ти ю</w>
ни ями</w>
к т</w>
че ское</w>
при гла
пар т
д об
ла бо
ком па
ка н
до сти
1 5</w>
шко ль
те м</w>
исследова ний</w>
во к</w>
явля ется</w>
сфер е</w>
ст ер
хо д
проек тов</w>
ра я</w>
за щи
до но
деятель ности</w>
фо ру
ти н
та х</w>
по с
но вые</w>
ни х</w>
е щ
бы ла</w>
сей час</w>
о к
кто ра</w>
ле т</w>
стран ы</w>
к тив
ствен ного</w>
о в</w>
е з
до цен
ци фро
у н
гла в
тра ди
ста л</w>
мероприя тия</w>
косми ческих</w>
гра фи
сво и</w>
и сп
систе мы</w>
об о
к лу
ста в
па с
за и
ту ри
п ли
мы х</w>
ки бер
та р
сси и</w>
зна чи
тя бря</w>
та н
себ я</w>
ре в
о соб
ст в</w>
спо соб
ри на</w>
про бле
не е</w>
к ну
б а</w>
с ли</w>
организа то
во м</w>
учены х</w>
стро е
приня ли</w>
по се
об уча
да ль
мо де
а спи
ча ст
с ен
раз лич
владими р</w>
позво ля
об су
фи на
ре б
че м</w>
у сло
жиз ни</w>
двига телей</w>
во е</w>
а пре
а на
ющи й</w>
тр ен
ра ми</w>
о ди
ва ния</w>
элек тро
исто рии</w>
д ро
цион ных</w>
т ные</w>
рова ние</w>
на ш
ди а
д ё
че ре
ми ха
го д</w>
в клю
я р
о пре
е м
во спи
в заи
1 1</w>
обе спе
груп п
го ро
во й
аспи ран
ти и</w>
отмети л</w>
ло м</w>
и л</w>
и де
ч у
с ве
руководи тель</w>
каж ды
з до
исп ы
в ра
ющи е</w>
это т</w>
ши й</w>
ши е</w>
че ние</w>
цент р</w>
фе сти
успе ш
се м
реги она</w>
о б</w>
науч ной</w>
жде ния</w>
благо дар
чис ле</w>
про ходи
пол уча
п ен
к то</w>
э ти
ш ен
програм ма</w>
кол ле
ко ллек
же ние</w>
до ста
ва я</w>
сп ра
ра н</w>
про й
пос ле</w>
шко лы</w>
то ри
па мя
ль но</w>
ко го</w>
э ф
со рев
не й</w>
мыш лен
мо й</w>
же ла
г ре
ствен ных</w>
апре ля</w>
2 0</w>
фести ва
под чер
особ ен
дан ных</w>
1 2</w>
усло ви
те о
коман ды</w>
ц а</w>
обуче ния</w>
ну ж
лабо рато
го р
вопро сы</w>
эф фе
ста ли</w>
мате мати
ле й</w>
фо то</w>
ла н
дми три
бо га
со вмест
про фи
ст ы</w>
сотрудни че
се год
по сту
пе ча
зна ния</w>
в с
экспер имен
ф он
м ного</w>
и и</w>
сорев нова
уника ль
то р
т ной</w>
сте р</w>
про ст
тель ства</w>
которы х</w>
гра н
те ра
р ф</w>
но я
на гра
мероприя тие</w>
интере с
r u</w>
ь е
факуль тета</w>
пред принима
олимпиа ды</w>
л у</w>
кото ро
доцен т</w>
в нима
аппара тов</w>
се к
при з
кото рая</w>
государствен ного</w>
челове к</w>
че ния</w>
фо то
ты ре
про ве
перспек тив
ма ни
конкур с</w>
к ра
исследова ния</w>
до ку
исполь зова
не го</w>
на с</w>
ле ва</w>
ки й</w>
инте р
ю р
ств у</w>
сло ж
раке тно</w>
при мер</w>
му зе
кажды й</w>
с ни
к си
ин нова
выс шего</w>
взаи мо
т вер
специали стов</w>
раз работа
г у</w>
по ко
о ста
буду т</w>
ци ей</w>
ме т
в з
i i</w>
сле ду
ни ям</w>
ди на
по р
де ка
ц а
пра влен
н ных</w>
и я</w>
за нима
доку мен
пригла ша
по каза
ко гда</w>
й те</w>
проек ти
про мышлен
посвя щен
от но
на м</w>
вузо в</w>
все го</w>
в ен
это го</w>
по зна
и ме
учены е</w>
теля ми</w>
позво ли
ва л</w>
ба зе</w>
т с
подчер кну
ноя бря</w>
s a
это й</w>
сегод ня</w>
меж ду</w>
а д
и ни
бе зо
ш та
ти ческих</w>
со бо
с ла
про стран
по ч
бо р</w>
ющи хся</w>
те ги
ски м</w>
пре зи
педаго ги
мо н
ма ги
ак туаль
то й</w>
о нов</w>
мы е</w>
ва ют</w>
бы ть</w>
2 5</w>
чески м</w>
помо га
не ния</w>
направле ния</w>
дис ци
то рии</w>
спор тив
свя за
от ве
кон стру
други х</w>
федера ции</w>
ста нов
науч ный</w>
заме сти
жур на
гу бер
безо пас
результа ты</w>
пи са
ву ю</w>
ц ов</w>
ф ун
ско му</w>
ма я</w>
за пу
за вер
е сли</w>
де ся
г е</w>
у зна
работ у</w>
рабо та</w>
про дол
пред седа
нача ль
в ки</w>
алек се
1 6</w>
стра теги
си я</w>
психо логи
образователь ных</w>
мно го
имен но</w>
в ли
б ра
1 3</w>
энер ге
хи ми
теле м</w>
соци о
от вет
оди н</w>
коман да</w>
поз дра
куль тур
к ри
де ле
вле ния</w>
александ р</w>
х ра
та ции</w>
со ю
раз ных</w>
прост о</w>
кор пу
е же
е е</w>
дисци пли
ва м</w>
академи ка</w>
эффе ктив
ц е</w>
по ло
по дели
ма с
то р</w>
тек ст</w>
проведе ния</w>
з де
боль шо
тер ри
профессо р</w>
ещ е</w>
до полни
гу мани
ба л
ан дре
i n
тель ных</w>
сове та</w>
пере д</w>
на пример</w>
е ва</w>
вклю ча
ра к
п я
на стоя
н ь</w>
испы та
ини циа
и о
ц ы</w>
су ще
са м</w>
по вы
не ско
конферен ция</w>
д и</w>
юри ди
посе ти
ль ных</w>
кур са</w>
ком пе
кла с
информа тики</w>
1 7</w>
фи ци
ста ла</w>
прези ден
пла т
обла ст
лен а</w>
коро лева</w>
зде сь</w>
г лу
бу р
че ском</w>
у кре
пу ля
на но
мо в</w>
ком м
за седа
получи ть</w>
от рас
ност ей</w>
мо гут</w>
мен я
ма стер</w>
м не</w>
лю де
ка д
де ля
ген е
а у
1 8</w>
тель ного</w>
стро й
с чи
ро бо
рассказа л</w>
ев на</w>
в ну
социаль но</w>
со стои
ра ции</w>
по зи
кибер не
ка те
5 0</w>
202 4</w>
ше ния</w>
хо де</w>
те т</w>
сво их</w>
пред ло
пер вый</w>
н у</w>
ме ха
ль ной</w>
ла й
ин ду
ви кто
пла ни
ко ли
д ву
уч ё
тран спор
ст ен
ор би
опы т</w>
на вы
косми ческого</w>
се мина
печа т
ди да
во ло
бога тыре
ща я</w>
пу бли
п ис
ни ко
мен я</w>
ле т
ки м</w>
к ров
это му</w>
стро и
руко вод
р ен
проце с
поддерж ке</w>
организа ции</w>
компе тен
з ы</w>
ди ре
в ского</w>
ре аль
помощ ью</w>
номи на
кафед рой</w>
авиацион ной</w>
а в
ше л</w>
фи ка
ссо в</w>
ра ди
на правлен
н си
мно ги
ль ный</w>
кан дида
ге ро
га м</w>
г ро
ви ть</w>
. ,</w>
челове ка</w>
участни кам</w>
студен ческих</w>
сти ки</w>
ста ло</w>
по пуля
комм уника
ат мо
ч у</w>
це ни
ти в</w>
са х</w>
проек ты</w>
про во
мар та</w>
информа цион
даль ней
внима ние</w>
реб я
пере до
п ления</w>
з он
авиа ции</w>
хо д</w>
ты ва
до сту
дмитри й</w>
гумани тар
во ен
ши м</w>
у станов
мо ск
каж до
в кла
б ин
тр и</w>
т ного</w>
плат фор
мо ско
здо ров
з ер
еже год
да х</w>
б из
1 4</w>
участ во
со обще
разработ ки</w>
киберне тики</w>
инжен е
де мон
вля ет</w>
" ;</w>
у стано
та лан
су р
студен там</w>
самар а</w>
ро ди
производ ства</w>
победи телей</w>
вы пол
э ти</w>
чес кую</w>
тель ные</w>
т ный</w>
про ду
об работ
нуж но</w>
меди ци
ль ные</w>
космонав тики</w>
ки на</w>
действи я</w>
ге о
универ си
мини стер
биз не
экономи ки</w>
у ю</w>
п а</w>
обуче ние</w>
й ти</w>
за во
дё ж
в до
1 9</w>
ь ер
ц ер
университе тов</w>
сер г
реше ния</w>
различ ных</w>
кру п
и м
веду щих</w>
боль ше</w>
тель ной</w>
соб ра
сер ге
сво ей</w>
са м
с ы
разви тию</w>
р у</w>
органи зова
на и
н то
ку з
го в</w>
вли я
ва ние</w>
ше ние</w>
ше м</w>
х но
участи я</w>
у да
технологи ческого</w>
созда ния</w>
с бор
м ни
коли че
ки н</w>
вле ние</w>
ш ли</w>
студен т</w>
сотрудни ков</w>
с у</w>
интеллек туаль
интеллек та</w>
серг ей</w>
самар е</w>
п раз
на д</w>
ме та
л ер
за веду
бе з</w>
ч ной</w>
ци ях</w>
стра н</w>
сво ю</w>
позволя ет</w>
по в</w>
н ные</w>
ле ние</w>
к ли
искус ственного</w>
замести тель</w>
же ний</w>
дина ми
д ва</w>
г ри
3 0
по сле
н ной</w>
з ен
би ра
а би
ша я</w>
ро б
ра з</w>
по тен
мен т</w>
ку й
и ю
е вич</w>
во с
в печат
бы ше
богатыре в</w>
я н
та ких</w>
связ и</w>
при мене
н ный</w>
ли я</w>
клу ба</w>
губер на
ве ст
ва с</w>
бо ва
техни ческих</w>
сто ро
ра х</w>
националь ного</w>
на шей</w>
мен а</w>
ма кси
кото рой</w>
ч ь</w>
цион ного</w>
парт не
ла га
ин ди
дол ж
все м</w>
ана ста
чере з</w>
у строй
состои тся</w>
рас ши
рабо то
ок тября</w>
куй быше
е ся</w>
бле й</w>
форма те</w>
та кие</w>
со гла
пре доста
отече ственной</w>
основ е</w>
моло дёж
ль я
космо с</w>
ин стру
и ми</w>
жде ние</w>
е ё</w>
доно р
а л
ё м</w>
уч ре
т ка</w>
стар та
ри н
при вле
представи тели</w>
поддерж ки</w>
объ ек
го ды</w>
ве ре
ь ю
хо ро
програм м</w>
ност ран
не м</w>
дека бря</w>
да же</w>
гене ра
беспило тных</w>
) ;</w>
ту р</w>
сп а
с л
работа ть</w>
по нима
от ра
о цени
ль я</w>
кров и</w>
инду стри
из да
и ностран
е сте
воло н
бо та
авиацион ных</w>
х а</w>
татель ной</w>
с дела
ру блей</w>
подчеркну л</w>
по то
лай н</w>
куз не
кон струк
зада ч</w>
го ри
важ но</w>
ба н
а о</w>
созда ние</w>
се ме
лю бо
ка я</w>
ка ла
ен ь</w>
8 0</w>
реги стра
побе ды</w>
о пе
науч ного</w>
кон цер
до й</w>
д же
возмож ности</w>
ва ться</w>
в ский</w>
t i
n a
ш ь</w>
ходи т</w>
ту ра</w>
тру до
ти ке</w>
те й</w>
ради о
по этому</w>
особен но</w>
но вой</w>
необходи мо</w>
на шего</w>
кар ьер
и г
жур нали
д ж
го род
ва е
фе до
ре сур
р о</w>
програм ме</w>
молодеж и</w>
ми ро
ми кро
люде й</w>
ль ного</w>
ле татель
кро ме</w>
всероссий ского</w>
времен и</w>
будуще е</w>
тео ре
рабо т</w>
получи ли</w>
организа ций</w>
но вый</w>
но во
не ние</w>
началь ник</w>
миха ил</w>
и д
вер х
чес ла
те х</w>
сите та</w>
позна коми
по я
опы том</w>
мас шта
зада чи</w>
государствен ный</w>
г ер
ви ча</w>
эта п</w>
э у</w>
университе т
ру бе
пер вые</w>
ито ги</w>
дер жа
ар хи
аби тури
ю щая</w>
э ле
ты ся
тер бур
т ли
ру ет</w>
праз дни
од к</w>
о ле
международ ной</w>
ма ло
дни м</w>
ба с</w>
аль ных</w>
чен ко</w>
х ва
у до
те мати
со вер
пре ми
по ня
не де
ми р</w>
ло ва</w>
демон стри
д ь</w>
вя чесла
вкла д</w>
в но</w>
б о</w>
абитури ен
! "</w>
с ро
ре ния</w>
предста влен
о цен
ка кие</w>
ито гам</w>
да ми</w>
д ня</w>
вы став
все гда</w>
вели кой</w>
вдо хно
ва ется</w>
будуще го</w>
эк с
ши ро
чес ки</w>
теля м</w>
ска за
реали зации</w>
откры ты
мета л
логи я</w>
ли тера
дипло мати
дан ные</w>
безопас ности</w>
эти х</w>
успеш но</w>
слу ша
сво й</w>
са ми</w>
прош ла</w>
под роб
пе тербур
отрас ли</w>
ми ра</w>
ива н</w>
ди стан
го ло
2 4</w>
щи й</w>
цион ной</w>
физи ки</w>
сте й</w>
спор та</w>
по че
о ль
ней ро
мо щ
ми но
ко не
жиз нь</w>
е лена</w>
ди к
вол ж
в р
ау ди
ци о
уров ень</w>
счи та
систе ма</w>
сер ви
с ме
разработ ка</w>
оп ти
неско лько</w>
наш и</w>
лю би
логи ческого</w>
конкур се</w>
здоров ья</w>
дис ку
вс ё</w>
вмест е</w>
ва лер
б ю
я за
ь е</w>
школь ников</w>
устано вок</w>
теоре ти
та кой</w>
сто й
мен ты</w>
коман д</w>
з у</w>
гово ри
га з
2 2</w>
2 1</w>
ше е</w>
чу в
ч ных</w>
це в</w>
стано ви
ста ть</w>
сен тября</w>
сан кт</w>
са йте</w>
пере да
обуча ющихся</w>
констру кто
ква нто
к рас
из уче
до ро
аэро космической</w>
атмо сфер
1 0
экс кур
федераль ного</w>
ря д</w>
реали зу
про све
при ори
от ли
моде ли</w>
летатель ных</w>
ка м
е т
вы ра
ва ри
благодар я</w>
ба кала
ющи м</w>
шко ла</w>
ч ё
услови ях</w>
ту а
ствен ный</w>
он лайн</w>
объ я
о дним</w>
но вого</w>
науч ные</w>
на ми</w>
музе я</w>
мо сти</w>
международ ного</w>
исто ч
из мене
д н
ву за</w>
воспи тательной</w>
вер ен
i e
ы х</w>
щи е</w>
ос нова
международ ных</w>
ма лы
кур с</w>
де лен
дву х</w>
г ля
высо ко
ва р
ар те
" :</w>
состоя лась</w>
с ка</w>
ра м</w>
поздра вля
компа нии</w>
и й</w>
д ли
встре чи</w>
анаста сия</w>
ан на</w>
ше ний</w>
фору ма</w>
форми рова
то ра</w>
тив ных</w>
тель ный</w>
строе ния</w>
сво е
поле з
он е</w>
обра ти
о каза
нау ка</w>
на ших</w>
ма рия</w>
лаборато рии</w>
кон так
ка зы
други е</w>
все й</w>
r a
фило со
фи нали
участни ками</w>
тре ни
тради цион
ствен ные</w>
ствен но</w>
поддерж ку</w>
под твер
нано спут
кузне цов</w>
комп ью
каче стве</w>
интере с</w>
з я
де т
вто рой</w>
ви ли</w>
бакала в
ак ции</w>
ци ями</w>
ту ре</w>
терри тории</w>
сп ла
си и</w>
с к</w>
ребя та</w>
прой дет</w>
при вет
предста вля
о о
нау ке</w>
мо сть</w>
ду т</w>
деле га
выступи ли</w>
авто мати
2 7</w>
юще й</w>
энерге тических</w>
тор же
сотрудниче ства</w>
со прово
со ответ
ре з
прош ли</w>
потен циа
о кон
о ко
которо го</w>
исследователь ского</w>
за ко
двига теле
ви ктор</w>
i t</w>
то чно</w>
соста в</w>
при н
позволи т</w>
обо ру
о ч
настоя ще
мо ни
мен та</w>
ла зер
ки та
исто рия</w>
и ть</w>
зна ние</w>
зая вок</w>
г ни
г ли</w>
высту пле
в у</w>
б ри
фе вра
у з
ти ях</w>
со м</w>
ро с
реше ние</w>
приня ть</w>
пре зен
олимпиа да</w>
образователь ной</w>
мо дели
мероприя тий</w>
зо в</w>
же нии</w>
вы ми</w>
202 6</w>
2 3</w>
цент ре</w>
це ре
рубе ж
програм му</w>
по мни
обеспе чи
ме ни
ма ши
л ю</w>
кон тро
кад ров</w>
графи и</w>
воспи та
c o
4 0
язы ка</w>
чески ми</w>
у ме
у л</w>
тив ного</w>
ти ка</w>
с но</w>
профи ла
предприя тий</w>
обработ ки</w>
об ре
ле г
ко е</w>
ква ли
е мых</w>
д ной</w>
гра ни
г ло
а м
а дре
э та</w>
э мо
ч ле
ч е</w>
фон да</w>
у вели
т ное</w>
ству ет</w>
реги онов</w>
ра сте
проду к
пр я
памя ти</w>
од ной</w>
на х</w>
на б
исследователь ский</w>
и ар
вузо в
бр науки</w>
б ло
слу ж
руковод ством</w>
ров на</w>
проекти рования</w>
пла не
пер ио
па в
п лен
м ся</w>
зо вать</w>
за ви
дви жения</w>
ви ду
бо ро
а да
m a
юр и</w>
т ным</w>
сти пен
со хра
сво ими</w>
работа ет</w>
ра ба
преподава телей</w>
по ра
оо о</w>
мы й</w>
исполь зу
иар кт</w>
зи рован
за ция</w>
г но
во в</w>
веде ния</w>
ве с
ва ми</w>
ще ния</w>
ш ин
фун к
фору м</w>
фило логии</w>
университе том</w>
ти рова
специали сты</w>
са мых</w>
ре а
ра в
при е
победи тели</w>
обору дова
но р
навы ки</w>
ма м</w>
лек ции</w>
которо е</w>
исследова телей</w>
информа ции</w>
инди виду
завер ши
дире ктора</w>
выступи л</w>
2 5
1 00</w>
фестива ля</w>
тру да</w>
т ки</w>
ро ль</w>
ро ва</w>
продол жа
поли тики</w>
площад ке</w>
о собо
направле ний</w>
мино брнауки</w>
ма х</w>
инте нси
ин ф
ж юри</w>
дик тан
ди ли</w>
гре сс</w>
г ли
вне дре
бо ра</w>
алексе й</w>
2 6</w>
ч те
ход ят</w>
тран с
те му</w>
ство вать</w>
ста нет</w>
соста ве</w>
си м
раз мер
при зе
плани ру
ори ен
на ш</w>
на чи
исследова ние</w>
бота ни
ь и</w>
че т</w>
цере мо
спор тс
с ма
про ф
под хо
обла да
о кру
о жи
на р
мини ст
коне чно</w>
кафед ра</w>
большо й</w>
б ро
s p
i ii</w>
у виде
твор че
сп у
сотрудни ки</w>
со ва
с да
пробле мы</w>
по ис
от лич
о чере
ни кам</w>
на д
н ная</w>
ко в
к ни
из вест
з ма</w>
е кате
вопро сам</w>
юще го</w>
ы л
совер шен
со вет
со в
си туа
с кую</w>
россий ского</w>
ре ша
пер во
на йти</w>
мен таль
ме ч
заведу ющий</w>
ев ге
вы чис
ви л</w>
бал лов</w>
февра ля</w>
у си
те сь</w>
талан тли
спра во
сл уча
про ректор</w>
нико ла
на зна
н ё
молоды е</w>
меха ни
мер и
космо са</w>
ключе вых</w>
з ей</w>
досту п
ден ы</w>
впечат ле
андре й</w>
це ль</w>
учеб ной</w>
участи ем</w>
уров ня</w>
ур бин
ти тель
студен тами</w>
стра не</w>
спут ник</w>
созда ть</w>
совмест но</w>
со еди
ре й
про то
про вер
при кла
на деж
ле тию</w>
к с</w>
зем ли</w>
же н</w>
ж дан
ду ш
горо да</w>
газ от
ад ди
ё л</w>
ха рак
фестива ль</w>
у пра
у верен
тре ть
се ль
представи ли</w>
председа тель</w>
предпринима тель
обще ства</w>
му зы
моско в
корпу с</w>
к тики</w>
инжене ров</w>
из обра
бю дже
ан то
ада п
l a
ча сть</w>
ч ные</w>
хо в</w>
фун да
су т
си ль
преподава тели</w>
пра во
пер вого</w>
од но
лю ди</w>
ко ст
кла ссов</w>
зави си
дру го
дипломати и</w>
де та
газот урбин
ве з
це ль
тыся ч</w>
ти ем</w>
те ри
ству ют</w>
сс ыл
самар ы</w>
рус ского</w>
росси я</w>
ре д
проводи тся</w>
при мер
око ло</w>
объеди ни
ну т</w>
материа лов</w>
количе ство</w>
к се
иде и</w>
зна ний</w>
дар ья</w>
д не
актив но</w>
1 d</w>
эксперимен таль
т р</w>
с цен
ро вич</w>
пу ти</w>
приз ё
под об
по гру
пер вых</w>
п ла</w>
обще ствен
националь ный</w>
мо м</w>
маги стра
групп а</w>
ан гли
щи м</w>
щ е</w>
ры н
россий ских</w>
ри ще
разработ ке</w>
пу ть</w>
предприя тия</w>
образова ние</w>
о ти
мы м</w>
моск ве</w>
ко ва
интер нет</w>
из уча
за рубеж
за клю
выпуск ников</w>
вле н</w>
буду щих</w>
бе ло
аль ного</w>
sa u</w>
h t
2 8</w>
19 4
цифро вой</w>
укре пле
справо чно</w>
состоя лся</w>
рассказа ла</w>
просве титель
олимпиа де</w>
о фици
о публи
на ру
н ного</w>
молодеж ной</w>
ми ре</w>
мет ров</w>
ли й</w>
и к</w>
докла дом</w>
ди я</w>
вы да
вто ро
ви зи
аппара та</w>
s sau</w>
o n</w>
n i
ющи еся</w>
ч ный</w>
х ран
х от
федо рище
сек ции</w>
ру ют</w>
ре гу
проце сс</w>
популя р
перио д</w>
отмети ла</w>
от ря
о зна
н г</w>
мо ти
многи е</w>
медици н
ма ссо
ма гни
логи ческих</w>
из дели
ещ ё</w>
ди м</w>
во стре
англи й
т ную</w>
стан дар
реше ний</w>
после д
пиа ш</w>
оль га</w>
ност ро
номина ции</w>
науч ная</w>
мето ди
лы й</w>
лен ы</w>
кре а
конструкто р
диа ло
гра ждан
во т</w>
а мери
20 30</w>
ша н
цион ные</w>
ход я
су б
студен ческого</w>
се ти</w>
связ ей</w>
региональ ного</w>
реги оне</w>
про демонстри
приглаша ем</w>
пра ва</w>
подготов ке</w>
об яза
о со
науч ным</w>
моде ль</w>
мест а</w>
мен ы</w>
да ри
групп ы</w>
го ря
встре ча</w>
востре бова
s c
ht t
: /
:/ /</w>
язы к</w>
экспер тов</w>
шко л</w>
х е
у вле
те м
сте пен
ствен ным</w>
се ре
ро ма
разви тии</w>
проходи т</w>
профессиональ ного</w>
предпринима тельства</w>
па о</w>
п ы</w>
на з
н га</w>
м пи
лу а
л л</w>
куль туры</w>
ки ми</w>
журнали стики</w>
докла д</w>
до ктор</w>
виде о
ви та
ви га
бо ри
6 0</w>
3 5</w>
0 3</w>
фи ль
у г
тру д
собо й</w>
ров ки</w>
ри й</w>
расте ний</w>
раз но
предло жи
подготов ка</w>
наи более</w>
маши ностро
коман д
инженер ной</w>
ид эу</w>
зи ровать</w>
заня тия</w>
ви д
c e</w>
це ле
т ная</w>
ста жи
состоя лось</w>
себ е</w>
ре ши
парт нер
отде ла</w>
объеди ня
кры лья</w>
конкур с
клу б</w>
каждо го</w>
информа ция</w>
из гото
зая в
ду ма
дости жения</w>
д ней</w>
ва ла</w>
б е</w>
аспиран тов</w>
анали за</w>
p s</w>
юриди ческого</w>
щ у
филосо фи
тель ная</w>
созда нию</w>
смо гут</w>
рова ли</w>
ра б
пу б
пото му</w>
передо вой</w>
пер со
п ы
отно шений</w>
о м</w>
ля х</w>
ле й
ис полни
зна ком
деятель ность</w>
вы бра
воз ни
а н</w>
энер ги
эксп луа
част ности</w>
ча ет</w>
те чение</w>
студен тка</w>
старта п</w>
с фе
регистра ция</w>
раз ме
помощ и</w>
пол ё
поздравля ем</w>
поддер жи
перво кур
опре деля
ни на</w>
направле ние</w>
кото ром</w>
косми ческие</w>
кла сс</w>
инф ра
вы я
вой ны</w>
бизне с</w>
o r
ы е</w>
учре жде
тре бу
ре ко
преподава тель</w>
помога ет</w>
поко ления</w>
начи на
направле ниям</w>
на ходи
мо го</w>
международ ным</w>
м л
ли н
ли дер
клас сы</w>
инициа тив
зада ча</w>
за слу
высту па
в ши
бе ре
ав гу
ю би
ш у
цель ю</w>
фунда менталь
факуль те
стои т</w>
соревнова ния</w>
современ ных</w>
собы тие</w>
со й
сем ья</w>
сво бо
результа там</w>
про гресс</w>
представи л</w>
пол учен
пер вое</w>
па три
п е</w>
отли чи
об ы
направле нию</w>
мони тори
масшта б
м не
л ли
кла сси
ки ри
кандида т</w>
ию ня</w>
интере сова
иностран ных</w>
за боле
глу бо
глав ный</w>
ва х</w>
e r
ше д
хо зя
ф а</w>
тур у</w>
ти ва</w>
технологи ческих</w>
стой чи
систе му</w>
ря д
раз раба
про шел</w>
преми и</w>
пред лага
популя ри
получа т</w>
партне ров</w>
о л
но вым</w>
н со
мо би
миха й
мен тов</w>
ль ное</w>
инженер ных</w>
з ри
е те</w>
д ь
высо кий</w>
впечатле ниями</w>
в первые</w>
бакалав риа
0 00</w>
явля ются</w>
я на</w>
ю лия</w>
экспер ты</w>
э ту</w>
че го</w>
ч ного</w>
хозя й
участво вать</w>
у ро
у луч
то лья
тео рии</w>
та ция</w>
расска зы
рас кры
пуб лич
профессиональ ной</w>
пред ме
пи ло
особо е</w>
обеспе чения</w>
ма т
лю да
луч ших</w>
инфра струк
заседа ние</w>
действи е</w>
гро м
вячесла в</w>
вычис ли
возмож но</w>
вну трен
школь ники</w>
чис ло</w>
че скому</w>
част ью</w>
тори й</w>
толья т
техни ческого</w>
строе ние</w>
стар ший</w>
сер и
са мые</w>
реко мен
ра сп
психо ло
президен т</w>
пи та
персо на
офици аль
не ме
на став
министер ства</w>
математи ческих</w>
и гра
за цию</w>
за ве
з вез
же нием</w>
е ния</w>
е ли
во шли</w>
би бли
авто р</w>
htt ps</w>
4 0</w>
ще ние</w>
че й</w>
форми рования</w>
форма т</w>
учеб ного</w>
узна ть</w>
тре х</w>
студен ческой</w>
сторо ны</w>
ста на</w>
ссыл ке</w>
созда нии</w>
современ ные</w>
сво его</w>
работа ют</w>
ра ст
про ис
прин ци
пол уче
по ми
од на</w>
неме ц
н ю
кру г
ис ка
зи м
ежегод но</w>
в ших</w>
анали з</w>
l i
ще н</w>
фор мы</w>
ти фика
станови тся</w>
социаль ной</w>
смо тре
сма три
се ле
самар ским</w>
с ко</w>
ност ях</w>
мы с
мо ду
мето ды</w>
ма ми</w>
компью тер
к р
источ ник</w>
информа цию</w>
и рина</w>
зая вки</w>
ди и</w>
деся ти
го м</w>
га ми</w>
г р</w>
благо дари
а б
2 9</w>
ь ше</w>
х и</w>
участни к</w>
у стойчи
торже ствен
ти ть</w>
т ё
соб ствен
сере бр
се ссии</w>
работо да
ра нее</w>
поле та</w>
од на
обще й</w>
о суще
но си
но ви
ни ками</w>
на шем</w>
н ра
компа ний</w>
индивиду аль
здо ро
защи ты</w>
за тем</w>
за й
ер ы</w>
ем ся</w>
екате рина</w>
губерна тор</w>
беспило т
актуаль ные</w>
2 3
че мпи
ча сти</w>
ци ям</w>
учеб ных</w>
сту пи
сотрудни к</w>
семина р</w>
с в
результа т</w>
проф сою
при ма
прави тельства</w>
подели лся</w>
под ве
пе с
пе ра
опре дели
о то
мо р
ме ся
ма стер
ле ний</w>
интерес но</w>
зако но
з в
е г
га р
веде ние</w>
абитуриен тов</w>
ш ла</w>
фи ли
та ть
ре да
пу ль
проце ссов</w>
промышлен ности</w>
при род
практи ке</w>
по верх
об мена</w>
о й</w>
ня я</w>
на сы
на вига
мо но
мно же
космо се</w>
коммуника ции</w>
государствен ной</w>
вы ез
академи и</w>
ю щ
ща ться</w>
ш ую</w>
че ты
фа кто
уров не</w>
уда лось</w>
те л
ру ю</w>
ре ктора</w>
програм м
поли на</w>
по ста
пис ь
открыты х</w>
о гром
м г
ле тия</w>
каче ства</w>
и ла</w>
и е</w>
евге ний</w>
высту пления</w>
ву за
вз гля
вер ситета</w>
в на</w>
авгу ста</w>
а спек
ци к
це лом</w>
уг ле
у ва
ти л</w>
сси я</w>
сло вам</w>
семе й
сдела ть</w>
сво им</w>
ро ста</w>
публи ка
посту пле
поддер жа
по стоя
плен ар
ни м</w>
наш а</w>
ле е</w>
ла х</w>
ком мен
институ те</w>
и л
и ик</w>
жи ни
ж а</w>
д ных</w>
волон те
ад мини
авиацион ного</w>
30 1d</w>
3 d</w>
щ ё
чи ков</w>
хими и</w>
участи ю</w>
увиде ть</w>
то рия</w>
тель ное</w>
те сти
сти ка</w>
сред ств</w>
сове т</w>
семина ра</w>
реб ят</w>
приня л</w>
пре ду
по тре
пер вой</w>
окон ча
одна ко</w>
обсу жда
обо ро
о грани
но сите
ни ть</w>
на таль
н но</w>
михай ло
международ ный</w>
косми ческий</w>
корпу са</w>
комплек с
компетен ции</w>
ис к
ин ве
и т</w>
з м</w>
жи во
ж у
докумен ты</w>
де тей</w>
да ет</w>
воспита ния</w>
во ль
викто рия</w>
вер ну
x x
24 0
я и</w>
ю сь</w>
чис лен
управле ние</w>
упра вля
стар то
созда вать</w>
с вет
рей тин
реги стри
расп ре
раз работо
разработо к</w>
проек тах</w>
про я
прима кова</w>
при меня
при зна
представи телей</w>
посту па
поли тике</w>
по может</w>
перспектив ных</w>
пер ь</w>
осуще ств
образователь ные</w>
област ной</w>
ни ки
наб люда
мо мент</w>
ло ка
ла у
ксе ния</w>
ка кой</w>
жи ть</w>
всероссий ский</w>
ви це</w>
а стро
7 0</w>
ц ве
фор м
студен та</w>
собы тия</w>
со об
ско ро
ско р
семе й</w>
са й
руководи теля</w>
р к
профессо ра</w>
професси и</w>
пробле м</w>
поми мо</w>
получа ют</w>
познакоми ться</w>
патри оти
отра сле
откры тие</w>
опубли кова
обсу дили</w>
о хва
о го</w>
ни ком</w>
нача ла</w>
на за
мо ро
материа лы</w>
маги стран
комплек с</w>
компетен ций</w>
ка дро
исследователь ской</w>
инте ра
зо на</w>
за па
за ка
дру г</w>
до гово
диску ссии</w>
де ле</w>
всероссий ской</w>
админи стра
3 4</w>
ш а</w>
цион ный</w>
ци ф
фици рован
уча щи
ти на</w>
тель ным</w>
те перь</w>
ссо циа
специаль ности</w>
сер ь
сво е</w>
ро да</w>
регу ля
раз у</w>
представлен ы</w>
пра ктики</w>
нау ку</w>
мл н</w>
ме три
ль ная</w>
коми ссии</w>
ис пол
жини рин
есте ственных</w>
ег э</w>
делега ция</w>
гра мо
гра жда
выпуск ники</w>
вопро сов</w>
включа я</w>
ве ро
библи оте
ак ция</w>
а ссоциа
s i
ie n
ша г</w>
фо ри
учё ных</w>
у м
ти н</w>
техни ка</w>
тем пера
студен ческая</w>
сообще ства</w>
со к</w>
с са</w>
разно образ
проек те</w>
про ти
при сут
представи ла</w>
под писа
по нен
о и
мо з
многи х</w>
ми р
лы е</w>
кур сов</w>
и гор
зо м</w>
за интересова
е мые</w>
двига теля</w>
гру з
вы ше</w>
во сто
ве сти</w>
в ного</w>
бы ст
а х</w>
я тся</w>
эти м</w>
эта пе</w>
ы й</w>
це п
ф ак
те л</w>
студен ческий</w>
со р
со ва</w>
сек ция</w>
самар ская</w>
ре ние</w>
различ ные</w>
работ ников</w>
производ ство</w>
проведе ние</w>
при ло
посети ли</w>
получи л</w>
пар та
оцен ки</w>
он то
образователь ного</w>
но к</w>
неско ль
мер а</w>
лы х</w>
лау реа
кон кре
кам пу
ка на
исследователь ских</w>
гуманитар ного</w>
взаимо действия</w>
важ ность</w>
а с
d e
3 1</w>
19 9
эта па</w>
ш о</w>
чте ния</w>
физи ка</w>
федорище в</w>
учеб ный</w>
услови я</w>
увели чи
теорети ческой</w>
та цию</w>
сто м</w>
стви и</w>
ст ью</w>
сотрудниче ство</w>
случа е</w>
ско лько</w>
разработа ли</w>
ра й
прой ти</w>
про вод
помощ ь</w>
подготов ку</w>
по мина
памя ть</w>
организато ром</w>
о собы
о з
ност ями</w>
нача ло</w>
нау кой</w>
н к
му зей</w>
кон су
ко ор
ин жинирин
д ве</w>
государ ства</w>
вой не</w>
вне ш
в ью</w>
бо е
бакалавриа та</w>
александ ра</w>
ян вар
ще го</w>
чен ы</w>
че твер
форми рование</w>
фина нсо
установ ки</w>
увле ка
тур ни
то н
т ни
со держа
сла в</w>
сите т</w>
сер д
сем ьи</w>
се кре
связ ь</w>
са т</w>
с ъ
с бер
результа тов</w>
пре ж
повы шения</w>
по ва</w>
орби те</w>
од но</w>
о свое
мероприя тии</w>
малы х</w>
коллек тив</w>
жела ем</w>
е ж
дё т</w>
доста точно</w>
долж ны</w>
групп е</w>
глав ное</w>
га зо
выпол ня
вы раз
во до
а сси
r na
0 4</w>
шко ле</w>
фору ме</w>
философи и</w>
т ка
ст р
сре ды</w>
специали ста
со бира
сле ди
рус ский</w>
робо то
ри ть</w>
ре жи
разви вать</w>
раз ные</w>
прош ло</w>
про шед
про фори
приня ла</w>
при ро
поя ви
по про
по лага
перспектив ы</w>
первокур с
п ля
опе ра
олимпиа д</w>
о ру
нейро се
насы щен
на помни
на де
мо же
ме нов</w>
макси ма
ла ми</w>
коллек тив
клас са</w>
квали фика
ка са
испыта ния</w>
использова нием</w>
интера ктив
и нов</w>
заяв ку</w>
де парта
де ву
да я</w>
да ни
губерна тора</w>
гран ты</w>
го стей</w>
вя тся</w>
выступи ла</w>
вузов ской</w>
ву з</w>
во вле
ве ще
ва ются</w>
ба р
r e
l e
яр мар
ш ру
чи та
чи к</w>
че ск
ча сти
ча ется</w>
харак тери
учи ться</w>
устрой ства</w>
универси а
у ра
ты вает</w>
ту рой</w>
т ю
т ра</w>
стви е</w>
ст э
спо со
служ бы</w>
си н
рус ской</w>
професси она
при ем</w>
пра в
пр о</w>
под ход</w>
под раз
по волж
парт нё
ос се</w>
ори на</w>
опре делен
озна коми
од ного</w>
образователь ный</w>
обла сть</w>
настояще е</w>
международ ная</w>
магистра туры</w>
ма тики</w>
ло гов</w>
круп ней
кру г</w>
коми тета</w>
ке й
й ся</w>
использова ния</w>
индустри аль
име ет</w>
и ль
зо н</w>
за регистри
жиз нен
дополни тельного</w>
диа гно
го н
владими ра</w>
ви де</w>
будуще м</w>
ба зо
б ран
атмосфер у</w>
январ я</w>
юр о</w>
ш оссе</w>
чемпи она
техни ческий</w>
те р</w>
те мы</w>
те ма</w>
стре ми
стратеги и</w>
спо мина
смо гли</w>
са да</w>
с чет</w>
с разу</w>
психологи ческого</w>
процес се</w>
профори ен
проводи ть</w>
примене ние</w>
посту пи
посвя щё
пол у
пол но
объек тов</w>
о в
наза д</w>
на се
молодеж ь</w>
мо е</w>
ми ну
мер ы</w>
ла на</w>
кото рую</w>
кири лл</w>
кад ры</w>
к м</w>
интере су
иннова ционных</w>
журна ла</w>
ер а</w>
е та</w>
доб ро
дета лей</w>
де вя
да лее</w>
д вой
го сти</w>
вы з
вопро с</w>
большо е</w>
ба й
б юро</w>
б пла</w>
арте к</w>
sc ien
2 6
я сь</w>
ю ж
ча сов</w>
хоро шо</w>
у с
тя бр
традицион но</w>
точ ки</w>
тив ные</w>
техни ческой</w>
та кого</w>
степен и</w>
ство ва
сро к</w>
специали ст</w>
сою за</w>
созда н</w>
со л
сер тифика
простран ства</w>
приори те
президен та</w>
п у</w>
о щу
ни ке</w>
несколь ких</w>
на бор</w>
моло до
мо ле
мето дов</w>
ме ст</w>
ль ную</w>
луч шие</w>
луч ше</w>
литера туры</w>
ли де
испыта ний</w>
исполь зовать</w>
информа ционных</w>
интеллек т</w>
зи и</w>
занима ться</w>
законо да
ж ден
еди но
диктан т</w>
десяти летия</w>
гран то
га у</w>
вы бор</w>
всероссий ская</w>
вла сти</w>
ви зу
важ ным</w>
в ье
бу де
бу д
бро н
ак селе
а ми</w>
4 6</w>
0 5</w>
я ть</w>
энер го
ье вич</w>
ь евна</w>
ше му</w>
че ства</w>
ч ин
фе р</w>
универси т
то пли
та кое</w>
т на
ству ющих</w>
стан ции</w>
спор т</w>
социаль ных</w>
сле дова
са ма
ро сте
рассказа ли</w>
пу те
прове ден
про дви
потенциа л</w>
поня ть</w>
поли го
подгото ви
по рации</w>
ожи да
обществен ностью</w>
но ве
не ний</w>
навы ков</w>
моло дой</w>
минист р</w>
материа л</w>
мар шру
измене ния</w>
за че
жа й
ду хо
до к</w>
ги на
вне учебной</w>
в шие</w>
бан ка</w>
актив ное</w>
a n
3 8</w>
19 6
ё т</w>
ше в</w>
церемо ния</w>
х удо
фина л</w>
факуль тет</w>
у ско
ты вать</w>
то ров</w>
то к</w>
техни ческие</w>
твор ческих</w>
талантли вых</w>
т ными</w>
соревнова ниях</w>
со ко
систе ме</w>
систе м
с р
ре спу
раке ты</w>
психо логии</w>
при обре
пе тро
отече ства</w>
ответ ствен
оле ся</w>
о ши
о к</w>
ни кова</w>
на писа
н х</w>
н ности</w>
му ще
мат ве
макси м</w>
ле о
кур сан
ис т</w>
индустри альных</w>
и ться</w>
за веде
журна л</w>
ели заве
дости жений</w>
дости же
д ри
ви т</w>
ве л</w>
в и</w>
благодар ность</w>
академи к</w>
а з
эксперимен тов</w>
ш и</w>
цифро вых</w>
ц у</w>
учрежде ний</w>
уни ве
ты е</w>
то ва</w>
тель ную</w>
стро ен
сси й</w>
сло ва</w>
ски ми</w>
сво й
с ке</w>
ру ется</w>
ро ли</w>
респу бли
р ского</w>
проти во
простран ство</w>
продол жи
приори тет</w>
председа теля</w>
пре крас
пре и
помога ют</w>
подели лась</w>
поверх ности</w>
площад кой</w>
площад ки</w>
планиру ется</w>
пи и</w>
педаго г</w>
от прави
от бор</w>
ори гина
обще ственной</w>
оборудова ния</w>
о но</w>
о казы
нра ви
но вое</w>
ники та</w>
наталь я</w>
н ского</w>
н й</w>
меди а
ль ным</w>
ло й</w>
ле онов</w>
ку а
королё в
контак те</w>
конструк ции</w>
конкур ен
ком понен
ка би
игор ь</w>
жи д
е му</w>
дисципли нар
дипло м</w>
ди й</w>
де ло</w>
ги б
вье тна
воз раст
ва лись</w>
в ной</w>
асси стен
адре су</w>
авиацион ный</w>
а ист</w>
а гра
ю ных</w>
эк спо
ь л
цент ром</w>
участни ка</w>
ут вер
университе ты</w>
у лья
у ли
ты й</w>
ту ро
транс форма
тра ек
тать яна</w>
сфер а</w>
совет ского</w>
се вер
с ра
с ки</w>
с гау</w>
ре кто
р д</w>
процес са</w>
прове ли</w>
потенциа ла</w>
поко лений</w>
побе ду</w>
пер вую</w>
очере дь</w>
отмети ли</w>
организато ры</w>
обсу ждения</w>
обрати лся</w>
о м
но м
не ф
направле нии</w>
н ность</w>
мене е</w>
мало размер
ли бо</w>
кор пора
коор дина
комплек са</w>
ком мер
карьер ы</w>
к со
истори ческого</w>
иск рен
институ тов</w>
и т
за пис
з рения</w>
з мы</w>
до в
деся ть</w>
д ный</w>
горя инов</w>
го скор
геро я</w>
газотурбин ных</w>
возмож ностей</w>
бизне са</w>
анали зи
o l
e n
ча й
успе хов</w>
у ди
ти ру
стар т</w>
спортс менов</w>
спи ке
сою з</w>
сопрово ждения</w>
сооб щи
сой фер</w>
со т
со ст
си ть</w>
региональ ных</w>
ре кла
пя ть</w>
профессиональ ных</w>
при ё
практи ческие</w>
поддерж ка</w>
погру зи
по ве
па х</w>
откры тия</w>
осуществ ля
науч ную</w>
моле ку
математи ка</w>
лё ва</w>
луч ший</w>
ло го
ли на</w>
ла тин
к ви
интер вью</w>
им пуль
издели й</w>
журна лов</w>
е ч
дру з
до м
до каза
дн ю</w>
дис сер
диа па
дер жи
департа мента</w>
действи тельно</w>
двига тели</w>
дальней шем</w>
город е</w>
гло б
вя т</w>
выс шей</w>
второ го</w>
воз гла
во ро
вле нием</w>
в ходит</w>
быст ро</w>
бли жай
аспиран т</w>
202 2</w>
че нию</w>
фо н</w>
учены й</w>
у вере
то ром</w>
то же</w>
тель ность</w>
сре де</w>
смо тр
сказа ть</w>
сим во
сво ем</w>
с са
рк ц</w>
реали зова
рас че
рас сматри
профориен та
про хо
практи ка</w>
поче му</w>
победи телем</w>
педагоги ческого</w>
от зы
организато ров</w>
о ф
о ва
нова я</w>
на до</w>
н ным</w>
му ж
меди а</w>
лю д
лю б
ло ги</w>
ли и</w>
ле та
кон гре
ключе вые</w>
кла сс
кибер физи
ка ких</w>
ию ля</w>
ио но
интеллектуаль ных</w>
инве сти
зон е</w>
заня ла</w>
заклю чи
за ми</w>
за ез
з дра
доно ров</w>
докла ды</w>
доб ави
до на
д ная</w>
горо дов</w>
ги и</w>
вы зо
вр учи
влия ние</w>
включа ет</w>
ве дь</w>
валер ий</w>
бо л
бо к</w>
бо в</w>
бли з
ауди тории</w>
аль ной</w>
александ рович</w>
адди тивных</w>
sp d</w>
scien ce</w>
in te
20 0</w>
юще м</w>
энерге ти
экскур сии</w>
э н
чен а</w>
че т
цифро вого</w>
цио ни
це ли</w>
хо чу</w>
фон д</w>
фили а
физи ческого</w>
увере н</w>
у доб
тради ции</w>
то гда</w>
те пло
тво ри
сфе рах</w>
строи ть</w>
стви я</w>
сред ства</w>
сове ща
смо трен
си лы</w>
си г
серебр я
само стоя
с верх
реализу ется</w>
рак ет</w>
работа ли</w>
простран стве</w>
приглаша ет</w>
преи муще
потре б
показа ли</w>
по ряд
пло до
платфор ме</w>
отве ча
основ ы</w>
на сколько</w>
на груз
молоды м</w>
метал лов</w>
мар ке
ль ном</w>
ли це
л уче
культур ного</w>
космонав тов</w>
коман ду</w>
колле гами</w>
кафед ре</w>
к ле
искус ственный</w>
инициа тив</w>
значи т</w>
за л</w>
е шь</w>
е д
да м</w>
д жа
гла ва</w>
ги перспек
выра жа
ви р
взаимо действие</w>
био логического</w>
аппара т</w>
ан ти
ti o
t u
5 0
3 00</w>
юще е</w>
ющ ую</w>
э ки
ши н</w>
четы ре</w>
че тыре
цион ная</w>
хо да</w>
форми ровать</w>
фа бри
учены ми</w>
участво вали</w>
узна ли</w>
ты х</w>
транспор т</w>
та ким</w>
студен ческие</w>
сти ть</w>
ста ра
спортив ной</w>
спи сок</w>
со че
ско ль
р и</w>
прото ти
проекти рование</w>
програм мам</w>
примене ния</w>
привле ка
при ем
представи телями</w>
поис к</w>
пози ции</w>
позволя ют</w>
победи тель</w>
по сред
по ка</w>
от ды
орга нов</w>
образо м</w>
носи т</w>
ни ца</w>
надеж да</w>
н ную</w>
москов ское</w>
модели рование</w>
ми д</w>
ма ра
лы ж
лек ция</w>
ле ген
ки сло
квали фицирован
й ского</w>
инте гра
и он
е го
диало га</w>
гори т
г то</w>
волонте ров</w>
во круг</w>
влен ы</w>
в ступи
бе з
ба зу</w>
александ ровна</w>
ал горит
агра р
d i
a r
язы ке</w>
ъ ек
ща ть</w>
ша ть</w>
ш ле
ци али
ц и</w>
хими я</w>
федераль ный</w>
ф ран
у деля
тя же
ту т</w>
техни ке</w>
те п
сси ю</w>
спут ников</w>
сп о</w>
соревнова ний</w>
современ ной</w>
сни л</w>
смотр я</w>
слуша телей</w>
слож ных</w>
си л</w>
си й</w>
связа нные</w>
само ле
с ь
с и</w>
пу сть</w>
при соеди
поч ти</w>
поступле нии</w>
поль зова
подве дены</w>
по дар
организа ция</w>
орби таль
окон чи
о до
науч ными</w>
на ч
на ро
моти ва
михайло вич</w>
минист ра</w>
ми н
ме н</w>
ль ти
куа и</w>
косми ческая</w>
коллек ти
й тесь</w>
инициатив ы</w>
и но
заседа ния</w>
за бы
дру ж
дол жен</w>
дни х</w>
ди ть</w>
дж а</w>
двигателе строения</w>
д ные</w>
генера льный</w>
га га
вере ни
ве ка</w>
ве дом
вдохно ве
в контакте</w>
бор ь
бор ту</w>
бе се
ба зы</w>
ар т</w>
ар т
али на</w>
а ген
o f</w>
e t
ющи ми</w>
эко логи
эки па
чен о</w>
ц о
финали сты</w>
фина нси
ты с</w>
ти ями</w>
тель ство</w>
ста нут</w>
спра вки</w>
со хран
сери й
серви с</w>
са ми
с со</w>
ры е</w>
рова л</w>
ро ско
разви ваться</w>
пу нк
прош ёл</w>
про тя
про гно
при ходи
получи ла</w>
познакоми лись</w>
подтвер жда
победи телями</w>
пес ни</w>
отече ственных</w>
основ ной</w>
ос ен
ориен ти
опе рации</w>
ню ю</w>
нен ко</w>
не смотря</w>
науч ное</w>
н т</w>
му ю</w>
му ли
мо ва</w>
лидер ства</w>
лаборато ри
кри о
консу льта
кар бо
и мя</w>
заседа нии</w>
за ле</w>
ж дут</w>
дела ть</w>
дви жение</w>
даль ше</w>
д ж</w>
д вере
двере й</w>
го ре
го о</w>
выступле ние</w>
выпол нен
вуза х</w>
всероссий ском</w>
во лю
вне д
вита лий</w>
веро я
ве че
боль ших</w>
био логи
бе спла
астро номи
ар тем</w>
202 3</w>
щи ми</w>
шко лу</w>
ши ми</w>
ч лены</w>
ч ки</w>
услови й</w>
универсиа ды</w>
сфер ы</w>
су верени
ста би
сотрудниче стве</w>
созда ли</w>
си е</w>
само м</w>
само лё
само е</w>
самар ских</w>
с р</w>
с вер
ры х</w>
руководи телем</w>
рова я</w>
рова ны</w>
рова нии</w>
робо ти
региональ ной</w>
расши ря
раке то
радио лока
проце ду
пред полага
праздни к</w>
пра во</w>
поли ти
по том</w>
по об
платфор мы</w>
пер вом</w>
откры т</w>
отде ления</w>
основ ные</w>
ос на
опубликова ны</w>
о форм
о ро
не му</w>
нав ли
на зы
музе е</w>
множе ство</w>
мен том</w>
м ной</w>
лю бы
ль ности</w>
кур сы</w>
куль тур</w>
куйбыше вского</w>
ку б
которы м</w>
космо дро
концер т</w>
коман де</w>
ко вой</w>
клю чи
инженер ные</w>
иг ры</w>
и дет</w>
зем ле</w>
заслу жен
зада ния</w>
за кры
елизаве та</w>
друго й</w>
до пу
динами ка</w>
де ло
дан ной</w>
да ть</w>
да вно</w>
выпу ска
встре ча
вну три
ве чер
ве сь</w>
в ные</w>
в ка</w>
боль шая</w>
благо твори
ат ле
аппара ты</w>
а но
а м</w>
r i
o n
7 5</w>
5 00</w>
язы ку</w>
экономи ческой</w>
шле ен
ш кина</w>
ч ном</w>
ч ная</w>
х ро
х ма
фор ме</w>
уникаль ный</w>
тольят ти</w>
техни ку
ста ту
спут ника</w>
соче та
соответ ству
совмест ных</w>
следу ющие</w>
сколь ку</w>
серь ез
самар ские</w>
регуля р
региональ ный</w>
реги она
ран ьше</w>
путе ше
публич ной</w>
процес сы</w>
произ води
практи чески</w>
поло жи
по казы
по бы
пав ло
осо зна
основ ных</w>
организато рами</w>
обуча ющиеся</w>
ну ть</w>
ни з
н ном</w>
н й
мя н</w>
монитори нга</w>
моз га</w>
мене дж
л ко
колле г</w>
кол лабо
каче ство</w>
кате гори
и ст
значи мость</w>
заво е
заво д</w>
за кон
е л
докумен тов</w>
дипло мы</w>
д р</w>
второ е</w>
возни ка
во шел</w>
вну три</w>
ве д
в ший</w>
в ных</w>
бан к</w>
а т</w>
tio na
sa ma
a c
экономи ческого</w>
эко логии</w>
щен ы</w>
чле н</w>
хот я</w>
ф ло
улья нов
у ма</w>
у каза
ти ли</w>
т вой</w>
ста ть
ст ы
сред него</w>
сказа л</w>
си бо</w>
си би
са на
са мым</w>
с се</w>
с ня
с мены</w>
с виде
ро са
результа те</w>
ре ж
профила кто
про ходят</w>
прие ма</w>
приглаша ют</w>
посвящен а</w>
помо чь</w>
пол ностью</w>
позволи ло</w>
пода ть</w>
по скольку</w>
по м</w>
платфор ма</w>
пер вен
па не
от бора</w>
организато р</w>
ор г
област ного</w>
о логии</w>
нов ь</w>
направле ниях</w>
наноспут ников</w>
на зем
мо дер
мне нию</w>
ми ссии</w>
меч та
меха ники</w>
м гу</w>
любо й</w>
ли шь</w>
лаборато р
кор ре
ком фор
кам па
истори ческой</w>
информацион ной</w>
из мени
зв уча
зарегистри рова
заме ча
зада ча
живо тных</w>
жде нии</w>
ер и
дистан ционного</w>
дан ный</w>
го л
ги й</w>
выступа ет</w>
вы бира
воз вра
внедре ния</w>
ве со
вари ан
ва дим</w>
в ь</w>
в новь</w>
в ключе
боль шие</w>
бо у</w>
аль фа</w>
ак цен
tiona l</w>
in g</w>
c a</w>
4 3</w>
3 7</w>
0 1</w>
( "</w>
я н</w>
эле ментов</w>
экспер тами</w>
щ ин
ш ка</w>
че к</w>
цифро вые</w>
ци аль
цент ров</w>
финали стов</w>
физи ке</w>
универ са
удо сто
трен е
тори ю</w>
тка ченко</w>
тив ный</w>
те й
счита ю</w>
суб ъек
сто л
сто ва</w>
современ ного</w>
слу жи
сле д
свет лана</w>
рекомен да
ре чь</w>
разраба тыва
р ги
призё р</w>
при ме
преж де</w>
посети ть</w>
пор та
получен ные</w>
пол е</w>
по жела
площад ках</w>
петербур г
пав лова</w>
открыты й</w>
отве ты</w>
ор а</w>
опти ми
опе рато
окру жа
объединя ет</w>
образ цов</w>
о хран
но вую</w>
но вом</w>
никола й</w>
ни ми</w>
награ ждения</w>
на сто
на ря
молодёж и</w>
миро вой</w>
ма шин
м ка</w>
л ле
круг лый</w>
крио ген
которы ми</w>
кон у
колле дж</w>
каждо му</w>
к ло
ил лю
изуче ния</w>
изобра жений</w>
заболе ва
ж и</w>
еди н
е н</w>
дол го
докла дов</w>
до н
де ти</w>
гово р
го ст
го ра
го дом</w>
выстав ка</w>
возни к
воз душ
воен ного</w>
ви ди
вер то
б у</w>
атмосфер а</w>
аспиран ты</w>
аспек ты</w>
анто н</w>
авто р
t h
o u
9 0</w>
5 5</w>
я ко
юриди ческий</w>
эксплуа тации</w>
ше к</w>
шан с</w>
че ство</w>
ч ность</w>
ч ное</w>
худо же
хо че
ф аль
участи и</w>
уча ствуют</w>
университет ской</w>
укре пления</w>
тури зма</w>
тре х
тре тий</w>
тре бова
творче ства</w>
стэ м</w>
стре м
сто л</w>
ство вал</w>
стажи ров
спек тро
социо логи
согла шение</w>
со ф
сиг на
серви са</w>
се т
се мена</w>
роско смо
ро ждения</w>
проходи л</w>
проек том</w>
приглаша ются</w>
представи ть</w>
предста вляет</w>
предоста вля
пред назна
пред вари
посвя щен</w>
пор т
подчеркну ла</w>
подготов лен
по хо
по ля</w>
отме чает</w>
откры вает</w>
ои яи</w>
обра ща
нор ма
не которые</w>
наш у</w>
на ше</w>
н ное</w>
музы ка
моско вского</w>
ми нут</w>
меж дисциплинар
м д
мд ц</w>
любо вь</w>
лиде ров</w>
кро во
кон цеп
кате го
к ции</w>
исследова тели</w>
исследова ниях</w>
инжинирин го
инженер ии</w>
из обре
зон ди
зо ло
заче те</w>
зависи мости</w>
заведе ний</w>
за про
е мого</w>
други ми</w>
донор ству</w>
до стой
дли тся</w>
дистан цион
дер ж
дальней шего</w>
да ют</w>
граждан ской</w>
гото ви
гори зон
го с
ген над
выстав ки</w>
ву зы</w>
воен ной</w>
вле нии</w>
визи та</w>
ви дов</w>
валер ия</w>
в ру
буде м</w>
брон зо
боль шую</w>
беспило тной</w>
ассоциа ции</w>
а рина</w>
а кто
rna tional</w>
p h
26 7</w>
25 0
1 5
я ро
эле менты</w>
э ста
эста фе
ше в
церемо нии</w>
ца х</w>
хо те
ха ка
федераль ном</w>
факто ров</w>
ф ут
уче ного</w>
учащи хся</w>
торжествен ное</w>
то т</w>
то ры</w>
тин ген
ти вах</w>
те мой</w>
т чи
сто го</w>
ство вали</w>
ст е</w>
ст вами</w>
спа сибо</w>
социо логического</w>
социо логии</w>
сообщи л</w>
сло вом</w>
ситуа ции</w>
се мян</w>
связа нных</w>
сам сат</w>
с может</w>
ря дом</w>
раз до</w>
рабо той</w>
профила кти
протя жении</w>
проек тами</w>
проводи т</w>
прове сти</w>
при чем</w>
при уро
преподава теля</w>
предло жен
практи к</w>
посту пления</w>
показа ть</w>
подели лись</w>
по те
по со
по ля
площад ка</w>
передо вые</w>
п л
отря дов</w>
отмети ть</w>
откры того</w>
обра ба
о пас
о ку
ност ям</w>
ни ченко</w>
ни н
неде ле</w>
не с</w>
не нием</w>
на й
н ь
модели рования</w>
мо я</w>
мину с</w>
мето д</w>
ме да
мар к</w>
ло моно
латин ской</w>
контро ля</w>
кон це</w>
колле ги</w>
кита й
ква р
использова ние</w>
ионо сфера</w>
инстру менты</w>
иде я</w>
иде й</w>
защи та</w>
занима ется</w>
за чис
дру же
дополни тельные</w>
ди л</w>
де ления</w>
де б
груп п</w>
го раздо</w>
генера льного</w>
ву зе</w>
волон тё
ви ла</w>
ви дим</w>
важ ней
бо ре</w>
благодари м</w>
атмо сфере</w>
ассистен т</w>
адре с</w>
а я</w>
а г
r a</w>
m e
d o
c h
c e
4 20
23 9
я х
юри й</w>
эко системы</w>
э по
широ кий</w>
чув ствовать</w>
четыре х</w>
чер ны
ча т</w>
хака то
х у</w>
х ар
фото графии</w>
учи ть</w>
уче бы</w>
укрепле нию</w>
угле род
у в
тру д</w>
трени н
тр ё
то сти</w>
то му</w>
то ль
тинген та</w>
сту па
стен ах</w>
способ ность</w>
соста вляет</w>
современ ном</w>
слож ные</w>
ско в</w>
с во</w>
рын ке</w>
рын ка</w>
ро ман
раз и
прово дни
прове л</w>
прия тно</w>
приз ы</w>
приз еры</w>
пре одо
получе ния</w>
по па
пи ть</w>
пер вая</w>
п ру
организова на</w>
окру га</w>
обяза тельно</w>
обще ния</w>
обеспе чение</w>
о че
о здоро
о г
носите ля</w>
ни н</w>
ни л</w>
националь ной</w>
на шим</w>
н ский</w>
му льти
молодеж ного</w>
ми стер</w>
мероприя тиях</w>
международ ном</w>
машиностро ения</w>
машиностро е
мате матики</w>
м уни
ло го</w>
лич ном</w>
ку да</w>
круп ных</w>
крас но
кон стан
ком пози
ко сти</w>
ка л
к н
ито ге</w>
истори ю</w>
з вание</w>
жела ю</w>
ж ё
ен ко</w>
ду мы</w>
до кто
диктан та</w>
дела ет</w>
дей ству
д ни</w>
горо д</w>
го тов</w>
глу б
ген на
г ви
выпуск ник</w>
вос стано
ви н
вдохно вля
важ ных</w>
ва нию</w>
б я</w>
архи тек
актуаль ных</w>
аген т
s o
r u
g i
4 5</w>
3 2</w>
24 6
202 1</w>
" )</w>
эмо циональ
экспер ти
чле нов</w>
ч ным</w>
хо л
учеб ном</w>
уче том</w>
ус лы
у т</w>
у ста
то е</w>
тив но</w>
технологи ями</w>
тель ством</w>
тек ста</w>
тан це
та кая</w>
студен ческим</w>
строе нии</w>
стре е</w>
стано вятся</w>
специалиста ми</w>
спек тр</w>
спе ц
состоя лись</w>
соко л</w>
син те
с ли
рован ных</w>
рован ные</w>
реали зовать</w>
ре ний</w>
разработ чиков</w>
прой дут</w>
про коммен
про длится</w>
пример но</w>
призе ром</w>
при волж
представля ли</w>
подоб ные</w>
под ви
повы шение</w>
по р</w>
по нрави
по ез
пла ты</w>
петербур га</w>
передо вых</w>
пере чень</w>
пер вым</w>
па вел</w>
отно шения</w>
отме ча
опы та</w>
оле г</w>
ознакоми ться</w>
объеди нен
о чной</w>
о чно</w>
ни цы</w>
неде ли</w>
не посред
не вероя
наз ва
моск вы</w>
моде лей</w>
миха ила</w>
меро м</w>
меж вузовской</w>
массо вой</w>
ма не
конферен цию</w>
ко му</w>
ко з
истори ческих</w>
информацион ные</w>
инженер ы</w>
и ден
зи н</w>
защи т
запу ска</w>
ж ных</w>
дру зей</w>
дро нов</w>
доцен та</w>
действи й</w>
двига тель</w>
дан ным</w>
да влением</w>
д я</w>
д я
д но</w>
го ся</w>
го й</w>
гео графи
высо кой</w>
высо ких</w>
вс ю</w>
волон тер
во ка
внедре ние</w>
вир туаль
взгля д</w>
ва силь
в ш
будуще й</w>
ботани ческого</w>
би он</w>
беспило тные</w>
бе ла
ба к
ар ен
а л</w>
sa m
ni ca</w>
inte rnational</w>
2 d</w>
юби лей
эффектив ность</w>
экскур сия</w>
э т
щ и</w>
шлеен ков</w>
ш ёл</w>
чи е</w>
ф ан
участни ком</w>
уси ли
университет ского</w>
университе ту</w>
укрепле ние</w>
у д
у голо
у бе
тольят тин
технологи я</w>
технологи ческий</w>
те ме</w>
та я</w>
т ности</w>
т ков</w>
сцен е</w>
струк туры</w>
сто й</w>
ст р</w>
сост яза
созда на</w>
собы тием</w>
со к
со действия</w>
слож но</w>
следу ющем</w>
серге евна</w>
сво ё</w>
само го</w>
са д
с формирова
с мыс
ресур сов</w>
рез ниченко</w>
регистра ции</w>
психологи я</w>
прош лом</w>
прокоммен тирова
проис ходит</w>
производ ственной</w>
производ стве</w>
проведе нии</w>
про з
прием ной</w>
при ве
практи ку</w>
практи ку
подхо да</w>
по и
по жа
партне рами</w>
па ла
обще ством</w>
образователь ная</w>
об меня
о хра
националь ных</w>
находи тся</w>
направлен а</w>
направле н</w>
мыш ления</w>
моти ви
модер ни
ми сс</w>
мен у</w>
марке тин
ля ми</w>
лич но</w>
ли нии</w>
ле м</w>
ла д
ку рато
кон тингента</w>
компа ния</w>
кита я</w>
кандида та</w>
истори ей</w>
инфраструк туры</w>
интеллектуаль ной</w>
ин я</w>
зо ва</w>
зарубеж ной</w>
зарегистрирова ться</w>
зада чу</w>
з я</w>
жела ющих</w>
же тся</w>
жде нию</w>
ж дены</w>
его р</w>
е мый</w>
дру га</w>
досту п</w>
дисципли н</w>
дире кто
дипло мов</w>
динами ки</w>
диало г</w>
ди зай
де ла</w>
д ного</w>
д нем</w>
гражда н</w>
государствен ном</w>
глав ного</w>
ги е</w>
ге ор
га х</w>
выстав ке</w>
высоко технологи
встре ти
во му</w>
влия ния</w>
важ ной</w>
ва лен
боле з
бо г
бо вать</w>
био логии</w>
бело ко
бе л
аппара туры</w>
амери ки</w>
ам би
адап тации</w>
а но</w>
а мар
» ,</w>
s t
b e
8 46</w>
5 40
юриди ческих</w>
эффектив ности</w>
экономи ка</w>
ье ва</w>
ы м</w>
шо у</w>
ши на</w>
ш ки</w>
че сть</w>
ч ную</w>
цен ностей</w>
ц кая</w>
форми ру
устрой ство</w>
у правлен
у и
ты вают</w>
транспор ти
то л
тив ной</w>
тель ности</w>
те ат
студен т
стра ива
стажи ровки</w>
ста л
сс ср</w>
спортс мены</w>
спортив ная</w>
специаль ной</w>
соста ва</w>
со всем</w>
смотре ть</w>
самар у</w>
самар ск
сай т</w>
са мый</w>
са мая</w>
с част
рус скому</w>
рус ском</w>
роботи зирован
ро сс
работ ки</w>
профсою з
про движения</w>
при мени
презен тация</w>
предложи ли</w>
поло жение</w>
полни ть</w>
под ня
по ря
по ро
плане та
па тен
отра жа
откры л</w>
об щий</w>
о ст
но мера</w>
не ль
не забы
нача ли</w>
нау кам</w>
награ ды</w>
на пря
на помина
н ю</w>
му со
моск ва</w>
молодо го</w>
ми лли
мето до
метал лу
ломоно сова</w>
ло жи
лео ни
кон ф
коммуника ций</w>
колле джа</w>
кни ги</w>
кли ма
кампа нии</w>
ка та
ка мер</w>
к г</w>
интерес ные</w>
интере сах</w>
изуче нию</w>
из ме
и лья</w>
зна я</w>
зна чение</w>
заня ли</w>
ж ной</w>
ж дет</w>
ев ро
ев ген
е ре
доно ра</w>
ден еж
де ни
де л</w>
гото вы</w>
гора ния</w>
гор ди
геро ев</w>
вши хся</w>
внима ния</w>
вз я
веду щие</w>
ва ем</w>
в ри
в не</w>
в л
бу ква
бли ж
анали ти
али сь</w>
актив ность</w>
авто моби
u ni
d _</w>
6 5</w>
24 8
24 4
20 0
19 7
1 50</w>
эта пов</w>
экспо зи
ще й</w>
ща ет</w>
це лях</w>
филь м</w>
филиа ла</w>
физи ко</w>
физ воспитания</w>
фестива ле</w>
федераль ных</w>
факульте тов</w>
успе ха</w>
универ и
ту та</w>
тради ций</w>
тех н
те лю</w>
танце ва
т ви
т вен
съ ез
суб бо
су дь
стратеги ческого</w>
ство вания</w>
ствен ное</w>
стату с</w>
сра вне
спосо б</w>
спортив ных</w>
состои т</w>
соста вля
соответ ствии</w>
ск б</w>
си ю</w>
си х</w>
серге я</w>
сам г
са рато
с нова</w>
с мар
россий ские</w>
рова нию</w>
ри ны</w>
реша ть</w>
режи ме</w>
региональ ном</w>
ре ва</w>
разработ ку</w>
прие ха
презен тации</w>
предприя тиях</w>
поч ё
послед ние</w>
получа ть</w>
поез д
подраз деле
повы сить</w>
побе да</w>
по благодари
плодо твор
пла то
перспектив ные</w>
перспектив е</w>
отно ше
опы тных</w>
ок тябр
оздоро ви
нов на</w>
ни ку</w>
необходи мые</w>
немец кой</w>
не те</w>
не возможно</w>
науч ном</w>
на ходя
н ными</w>
моско вский</w>
мо л
мо гли</w>
много е</w>
миро вого</w>
министер ство</w>
мест е</w>
м ги
люд ям</w>
лич ных</w>
ли ца</w>
ли ней
ле нии</w>
курсан ты</w>
ку н
кру гло
команд ном</w>
коллабо рации</w>
ки пла</w>
кванто вых</w>
кванто вой</w>
каж дая</w>
испы татель
интенси в</w>
инженер ия</w>
ин де
издели я</w>
из луче
иг ра</w>
и на
значи тельно</w>
зе ме
заво да</w>
за хва
за бо
жа ть</w>
е ц</w>
друз ья</w>
до пол
делега ции</w>
девя той</w>
гото в
га н
г ну
выра щи
времен но</w>
во спомина
во ды</w>
вле нию</w>
ви д</w>
ве тера
боль шим</w>
бло к</w>
безопас ность</w>
ба ри
ба лан
аэро космических</w>
анали зировать</w>
актив ной</w>
ак ти
а лю
v k</w>
ti on</w>
sama ra</w>
li b
420 301d</w>
4 8</w>
1 3
яко вле
я дер
ю ни
ю ме</w>
э ска
ша хма
ци она
хи на</w>
функ циони
учены м</w>
управля ть</w>
универ су
у ф
тыся чи</w>
трудо устройства</w>
трен ера</w>
твер до
та й
сти ли</w>
старто вал</w>
старта пов</w>
спек тра
сп ис
состоя ния</w>
созда нием</w>
сов ме
сло вами</w>
серге евич</w>
сек ций</w>
се мест
се зона</w>
се зон</w>
с рав
с выше</w>
росте ха</w>
роскосмо с</w>
ро ст</w>
реше нию</w>
республи ки</w>
рас счи
проходи ла</w>
промышлен ных</w>
проек ту</w>
продемонстри ровали</w>
програм ми
програм мах</w>
принима ли</w>
прикла дных</w>
приз ва
поряд ка</w>
пол уч
поис ка</w>
поз же</w>
подроб нее</w>
подоб ных</w>
подар ки</w>
пода чи</w>
по ка
по до
по все
пла ны</w>
печа ти</w>
петербур ге</w>
пе л
пара метров</w>
отличи е</w>
от да
от боро
ориен тирова
определи ть</w>
од ном</w>
обще ние</w>
обще го</w>
оборудова ние</w>
област ях</w>
об нару
о писа
но вич</w>
не нии</w>
началь ника</w>
нача л</w>
насе ления</w>
направлен ных</w>
на бра
мет ры</w>
мастер а</w>
малоразмер ных</w>
ма ш</w>
ль ными</w>
ло га</w>
лек ций</w>
ле в</w>
кур се</w>
кост ного</w>
космонав т</w>
ко раб
кли мати
кви з</w>
катего рии</w>
кар то
кампу са</w>
кажды м</w>
й ской</w>
использу ются</w>
интере сы</w>
инженер ного</w>
инжене р</w>
инду ст
инди и</w>
ин клю
измене ний</w>
и гро
зонди рования</w>
зо р</w>
зим него</w>
зи на</w>
запис ь</w>
заня тий</w>
зака з
за р
жи гу
же м</w>
жда ются</w>
ж у</w>
е с
е мой</w>
дума ю</w>
д во
гуманитар ных</w>
гран та</w>
госкор порации</w>
го дов</w>
г р
выбра ть</w>
влен а</w>
владими ровна</w>
вла де
вклю чи
вече р</w>
ва ли
бори с</w>
бо й
би на</w>
беспилот ников</w>
бе зу
бай кону
алексе евич</w>
авиацион ные</w>
а к</w>
x v
s la
r y</w>
24 9
24 3
. )</w>
эк за
щ ер
ши ть</w>
ша гом</w>
цио з
цент ра
це ва</w>
хоче тся</w>
хо ва</w>
характери сти
фундаменталь ных</w>
фро н
фото ники</w>
формирова нии</w>
фо на</w>
фика ции</w>
учеб но</w>
уникаль ная</w>
университе тах</w>
укре пля
уди ви
тури сти
треть е</w>
тре к</w>
тре бо
то м
тив ное</w>
ти му
тен ден
та и
т ле
ся т</w>
су деб
сту д
стра на</w>
стипен ди
специ фи
сохра нения</w>
согла сие</w>
собы тий</w>
следу ющий</w>
ск ре
серд ца</w>
сель хо
сель ско
сбор ная</w>
самостоя тельно</w>
са ма</w>
са д</w>
с ку</w>
с горания</w>
с г
ру п
россий ский</w>
ри н</w>
реши ть</w>
ресур сами</w>
реали зацию</w>
рас позна
ра до
р по
пы та
проходи ть</w>
продук ции</w>
продолжа ет</w>
про ры
приро ды</w>
привет ственным</w>
при бо
пре сти
практи ческой</w>
постоя нно</w>
посети ла</w>
посвящен ная</w>
порт фо
популяри зации</w>
помо гут</w>
подгото влен</w>
по та
пла на</w>
пер и
пе в
оч ном</w>
основ у</w>
ос ве
онто логия</w>
объеди нения</w>
о щ
о он</w>
о г</w>
ну ться</w>
ни ж
националь ном</w>
мы ми</w>
молоды ми</w>
може м</w>
много числен
министер ством</w>
меся цев</w>
мен ьше</w>
меж вузо
максима льно</w>
лич ности</w>
ли це</w>
ли ц</w>
ле с
ла м</w>
ла гер
ку ли
королёв ские</w>
конф ли
кон тен
ком му
ка жется</w>
институ том</w>
ино гда</w>
инженер а</w>
изда ние</w>
зри телей</w>
зи ру
защи те</w>
заверши лся</w>
журна ле</w>
жи телей</w>
же нию</w>
ж ок</w>
е си
е вича</w>
докла дами</w>
до не
дисципли нам</w>
делен о</w>
де лу</w>
де ко
дани ил</w>
д ное</w>
государствен ное</w>
гор до
говори ть</w>
говори т</w>
гага рина</w>
г ла</w>
г боу</w>
все лен
возмож ностях</w>
возмож ностью</w>
виде ть</w>
ви ктора</w>
важ ный</w>
ва ш</w>
ва й
буду щие</w>
аэро би
авто ном
авиа ко
а ции</w>
x x</w>
v ol
vol g
p r
k et
a i
5 8</w>
25 1
. -</w>
" ).</w>
эска дри
энерги и</w>
эксперимен ты</w>
щен а</w>
шен ко</w>
ш кин</w>
че нии</w>
ча са</w>
цен ности</w>
це лей</w>
ца м</w>
факульте те</w>
уча тся</w>
уси лия</w>
уникаль ные</w>
уникаль ную</w>
уме ние</w>
у делено</w>
требу ет</w>
тор го
то ва
ти ла</w>
технологи ческое</w>
тести рования</w>
тель ными</w>
тель ном</w>
те сто
те ку
твор ческой</w>
т ном</w>
т д</w>
т 1</w>
су м
стипен дии</w>
сте па
ствен но
спра ви
сп ар
сохран я
состоя ние</w>
сме лов</w>
следу ющим</w>
следу ет</w>
си льно</w>
си лу</w>
си ло
си ли</w>
сертифика ты</w>
сем ь</w>
само й</w>
с бере
ры й</w>
ре волю
рас смотре
разработа ть</w>
раз а</w>
радио люби
рав но
работа л</w>
профила ктики</w>
производ ству</w>
програм много</w>
про ку
привле чения</w>
при не
преподава тель
предоста вляет</w>
пред стоит</w>
пре до
практи ческих</w>
практи ческая</w>
полиго на</w>
побе д</w>
по э
по ме
плане те</w>
пита ния</w>
перспек тивах</w>
памя тные</w>
п уч
отды ха</w>
особен ности</w>
ос ва
орбиталь ной</w>
образователь ную</w>
обеспечи вает</w>
об р
об но
нуж ны</w>
нико вых</w>
ни ц</w>
нейросе те
незабы вае
не стандар
наде юсь</w>
на ц
на пра
на лого
молодёж ь</w>
мо менты</w>
медици ны</w>
материа ла</w>
математи ческого</w>
магни то
ма то
лю дь
людь ми</w>
ль ность</w>
лу каче
лин гви
ли о</w>
ле тие</w>
лазер ных</w>
лазер ного</w>
куль туро
кругло го</w>
кри ти
кра й
кра е
космодро ма</w>
косми ческом</w>
констру ктор</w>
ки стана</w>
ки но
каждо й</w>
к та</w>
к ет</w>
иссле ду
испол ня
искус ства</w>
инте гри
инклю зи
име ют</w>
иллю мина
изуче ние</w>
изобра жения</w>
изда ний</w>
иде ями</w>
и вать</w>
и в
зо вы
за в
з ис
жен ы</w>
ен ы</w>
ду х</w>
до вер
дисципли ны</w>
диагно стики</w>
ди н</w>
действи и</w>
д по</w>
г г</w>
выступле ний</w>
высоко квалифицирован
высо ко</w>
всероссий ских</w>
влади слав</w>
вид но</w>
бы стрее</w>
буква льно</w>
боль шин
бог да
ба нова</w>
ар ского</w>
амби циоз
аль но</w>
авто ри
аб со
а ть</w>
v i</w>
t o
sla m</w>
p r</w>
i v</w>
co m</w>
8 9</w>
3 6</w>
яр ких</w>
эксперимен та</w>
экономи ческих</w>
ь ев</w>
ща ется</w>
шко лой</w>
чи н</w>
цик ла</w>
хо ло
хи н</w>
функ циональ
формирова нию</w>
фор ма</w>
филосо ф
ф ин
успеш ной</w>
универсу м</w>
у м</w>
ту ет</w>
торжествен ная</w>
то вых</w>
ти мо
техни ческое</w>
те ра</w>
т ров</w>
су пру
су пер
стои мость</w>
сто ла</w>
сте ров</w>
ствен ном</w>
стар шего</w>
ст вах</w>
сро ки</w>
сре ду</w>
способ ности</w>
специаль ность</w>
спектро ско
социо логических</w>
социаль ного</w>
сообще ство</w>
сол не
согла сно</w>
соб ственных</w>
сельско хозяй
сдела ли</w>
сво ём</w>
сбор ной</w>
самар ско
с не
рова н</w>
рова ла</w>
ро ст
ро вича</w>
результа тами</w>
рез юме</w>
ребя тами</w>
ребя там</w>
раз бира
работода телей</w>
р т
проходи ли</w>
провод ятся</w>
провер ить</w>
присоеди ни
принима ют</w>
прикла дной</w>
президен том</w>
преду смотрен
представи тель</w>
предложи л</w>
пре вра
поя снил</w>
посвящен ный</w>
портфо лио</w>
поко ление</w>
подроб но</w>
подели ться</w>
погрузи ться</w>
пере жи
первокурс ников</w>
педагоги ки</w>
партнер ы</w>
оши б
откры та</w>
основ ная</w>
орби ту</w>
оп тики</w>
оконча нии</w>
объеди нение</w>
образова нии</w>
нова ния</w>
ни ках</w>
нель зя</w>
не зависи
не в
настоя щий</w>
настав ников</w>
на сле
на пол
на вер
молодёж ной</w>
м лад
м кс</w>
луч шая</w>
лу ка
ло г</w>
лич ные</w>
леген дар
лег ко</w>
ле та</w>
ле нию</w>
культур но</w>
куль тура</w>
куйбыше в
крупней ших</w>
кра т
конкур сах</w>
коллек тива</w>
ко пи
ко п
ко ло
ко вых</w>
к тов</w>
исследователь ские</w>
ис ключи
информацион но</w>
информа тика</w>
инженер ная</w>
индуст рии</w>
иль и
и с</w>
и р
звез да</w>
жи вой</w>
едино мышлен
е и</w>
долж на</w>
докла д
добави л</w>
до ма</w>
до ва</w>
деятель ностью</w>
демон стра
дека н</w>
д вер
гран т</w>
грам мы</w>
го ва</w>
ге рой</w>
г с</w>
выз вали</w>
возраст е</w>
воен но</w>
во д</w>
внед ря
включа ла</w>
вз рос
веду т</w>
веде тся</w>
в пере
бу ю</w>
бо й</w>
библиоте ки</w>
бе с
ау д</w>
ар гу
амери кан
актуаль ным</w>
актив ности</w>
академи ческого</w>
академи ческих</w>
абсо лю
w e
v i
p e
m i
d a
c ket
6 3</w>
24 7
0 2</w>
. :</w>
ё тся</w>
ярмар ка</w>
язы ков</w>
электро нный</w>
ь ся</w>
щин ы</w>
ше нию</w>
ша ет</w>
чемпиона та</w>
че н</w>
части ц</w>
ч ности</w>
ч лен
хоте лось</w>
хими ческих</w>
х ы</w>
фото графи
фор му</w>
фабри ки</w>
установ ка</w>
ура ль
универ сти
увеличи ть</w>
у про
тро ну
транс ля
тель ских</w>
творче ство</w>
сту де
стратеги ческих</w>
сторо н
сте та</w>
ствен ными</w>
ств е
ста ти
ста н</w>
ст о</w>
специаль ностей</w>
специали тета</w>
сохра нить</w>
сотрудни ками</w>
сот ни</w>
со ц
со го</w>
следу ющих</w>
се ссия</w>
све та</w>
све т</w>
с хе
рома н</w>
ри у
ри ски</w>
реше нии</w>
рекомен дова
результа том</w>
региона х</w>
реаль ные</w>
ре й</w>
рассказы вает</w>
р ки
пу т
психологи ческий</w>
профессиональ ное</w>
про стра
про м</w>
примене нием</w>
призе ров</w>
при шли</w>
при мером</w>
при з</w>
при вы
предприя тиями</w>
понима ть</w>
полно мо
пои ско
подхо ды</w>
под вод
повсе дне
побе де</w>
по ющая</w>
по вто
площа док</w>
пись ма</w>
петербур г</w>
педагоги ческий</w>
пе ния</w>
оцени ли</w>
оцен ка</w>
откры той</w>
от кли
оста ется</w>
особы й</w>
особ о</w>
организа цию</w>
орби ты</w>
олимпиа дах</w>
одно временно</w>
объ ем</w>
объ е
обеспечи ть</w>
об ши
не тся</w>
не нию</w>
не много</w>
нача лась</w>
наря ду</w>
наде емся</w>
над ца
на следи
на ла
н с</w>
н ки</w>
монитори нг</w>
мо г</w>
ме тро
ме д
мате ри
мало го</w>
логи й</w>
ле нием</w>
кре ди
концер та</w>
констру и
каче ством</w>
категори ях</w>
каза х
каж дом</w>
ка меры</w>
ка кими</w>
й ский</w>
интере сов</w>
иннова циям</w>
изда ния</w>
и ми
заня тости</w>
законода тельства</w>
за помни
за ла</w>
з ре
з и</w>
жен а</w>
жа ет</w>
ж ан
ер ситета</w>
ен тов</w>
евге ния</w>
душ и</w>
донор ства</w>
докла да</w>
ди ф
деся ти</w>
дели тся</w>
деж ур
двигателе строи
дви жением</w>
дан ного</w>
дан ная</w>
дальней ших</w>
да та</w>
город ского</w>
гиперспек тро
гео метри
генна дий</w>
га зе
г ры
вьетна м
вызо вы</w>
вы шли</w>
вы дели
вы бран
впере ди</w>
воз действия</w>
влия ет</w>
ви на</w>
ва ши</w>
ва ша</w>
в шая</w>
бюдже тных</w>
бу ма
бр е</w>
белоко нов</w>
арт ём</w>
аль ян
аль ные</w>
акселе ра
авто ры</w>
а ч
а й
sa t</w>
s si
m o
_ ad_</w>
9 1</w>
6 0
24 5
20 19</w>
1 7
явля ет</w>
юще гося</w>
юби ле
ю рия</w>
эффе кт</w>
электро нной</w>
школь никам</w>
челове ком</w>
че нием</w>
че му</w>
част о</w>
ч ными</w>
цион ную</w>
ходи ть</w>
форма та</w>
фло ры</w>
филь ма</w>
фа на
учре ждение</w>
учеб ные</w>
участво вал</w>
университе тами</w>
трансформа ции</w>
транспор та</w>
ти ям</w>
ти па</w>
технологи ческие</w>
терри торий</w>
тель стве</w>
те зи
талан тов</w>
та кую</w>
т ность</w>
сти мули
сти ке</w>
стви ем</w>
ствен ную</w>
ствен ная</w>
стар ших</w>
ссо м</w>
сре до
спра вля
спортив ного</w>
спи са
сор ци
созда ет</w>
совмест ной</w>
со иска
сите те</w>
си т
серий ного</w>
сер де
сен тябр
се н</w>
связа ны</w>
связа на</w>
свое му</w>
са ло
с мена</w>
руковод ство</w>
роса том</w>
рин ц</w>
рекоменда ции</w>
рейтин г</w>
реаль ных</w>
расши рить</w>
раке тных</w>
работа ла</w>
пя ти</w>
пря мо</w>
профессиональ ные</w>
прото ко
промышлен ного</w>
производ ственные</w>
проз ра
проек тной</w>
продук ты</w>
продолжа ть</w>
принима ются</w>
призе рами</w>
пригла шен
приволж ского</w>
при ём</w>
преподава телями</w>
преду сматри
предста влен</w>
предприя тие</w>
практи ческий</w>
праздни ка</w>
поч в</w>
пооб щаться</w>
понима ние</w>
показа тели</w>
под пис
под го
по чувствовать</w>
по участвовать</w>
по м
плане ты</w>
отли ча
отде л</w>
организа циями</w>
оп тических</w>
обще стве</w>
образ цы</w>
обра щаться</w>
облада ет</w>
об а
о по
но выми</w>
необходи мость</w>
напомни м</w>
напомни л</w>
назна чения</w>
наб люде
н ской</w>
н гоо</w>
мы сли</w>
мощ ный</w>
мги мо</w>
м ф
ль ев</w>
лука чё
лич ного</w>
ли т</w>
ли стов</w>
лаборато рия</w>
ку бок</w>
крово да
кре п
кра со
конгре сса</w>
кон ку
компонен тов</w>
комплек сов</w>
коммер циали
ко ле
ключе вым</w>
кадро вый</w>
ка ким</w>
к л
искус ство</w>
интегра ции</w>
инстру мент</w>
иностран ные</w>
инженер ным</w>
ин е</w>
име ть</w>
и лись</w>
и а
запу ска
з ву
жда ть</w>
ж ет</w>
ду ар
дости жение</w>
дости гну
дополни тельных</w>
докумен таль
диссер та
ден тов</w>
дели лись</w>
двига те
да ёт</w>
д ца
гу се
говори ли</w>
го дах</w>
глав ная</w>
г вар
выпуск никам</w>
вы игра
все ми</w>
востребова ны</w>
возмож ностями</w>
во да</w>
вле ний</w>
виде о</w>
ви ды</w>
взаимо дей
вер сия</w>
ва шей</w>
в спомина
благо получи
бе ско
бал лы</w>
ауди тория</w>
ар ти
ана толь
акцен т</w>
актив ных</w>
аграр ного</w>
автомати зирован
авто ров</w>
а ни
а гро
v a</w>
ro cket
la v</w>
i x</w>
c u
b o
5 1</w>
" ),</w>
ё з
яр ким</w>
яр кие</w>
энерге тики</w>
эмо ции</w>
эле мен
эк спе
эк ра
ь т</w>
ш ё
чле ном</w>
че ско
че ва</w>
че б
ч о</w>
цифро ви
ци па
хо р</w>
фон дом</w>
учен ы</w>
устойчи во
уникаль ных</w>
уз бе
удо воль
у точ
у пор
трё х</w>
трене р</w>
топли ва</w>
то п</w>
тли б</w>
ти ческие</w>
та ки
т в</w>
стро го</w>
стать и</w>
стар ше
ста тей</w>
ст я
специаль ных</w>
специаль ный</w>
специаль ные</w>
сопрово ждение</w>
сой фер
совершен но</w>
слуша ть</w>
сла ва</w>
ск ет
систе мой</w>
серебр о</w>
сегод ня
сегодня ш
се ния</w>
сбер а</w>
самар скому</w>
с начала</w>
росте х</w>
россий ским</w>
ро к</w>
ро жде
реда к
регу ли
реали зация</w>
ре е</w>
рас простра
разработ кой</w>
разви вается</w>
раз верну
прокомментирова л</w>
пробле му</w>
про д
про в
природ ных</w>
приня тия</w>
принима ет</w>
при су
при зо
при знание</w>
предприя тии</w>
предприниматель ских</w>
пред стоя
пре м
полё та</w>
полё т</w>
получе ние</w>
получа ет</w>
поздравля ю</w>
поддержа ть</w>
персона льных</w>
первокурс ники</w>
первокур сни
пара лле
па ми</w>
оцени ть</w>
отря да</w>
ото бран
ответствен ности</w>
оста навли
освое ния</w>
олимпиа ду</w>
оконча ния</w>
объя сни
объедини л</w>
обще ство</w>
обла стей</w>
о станови
о сво
о про
о е</w>
о держа
о графии</w>
ни кто</w>
непосред ственно</w>
не ра
нача ле</w>
настояще му</w>
направлен ы</w>
наз вание</w>
награ ждение</w>
муни ципа
му т</w>
му м</w>
му ля
мо и
ми ся</w>
математи ке</w>
ма на</w>
ма й
м нение</w>
люб ви</w>
лы м</w>
луч шее</w>
лич ност
литера туре</w>
лен ные</w>
ле кар
ку п
контак ты</w>
конструктор ских</w>
констру ктора</w>
констан тин</w>
конкурс ный</w>
кон ца</w>
кон сорци
коман ди
количе ства</w>
кла ды
кири л
ки пения</w>
кафед ру</w>
каса ется</w>
кал мы
каби нет</w>
ка ли
ка и</w>
к во
информа цией</w>
интеллектуаль ная</w>
инжиниринго вого</w>
излуче ния</w>
ива нова</w>
зна ниями</w>
зна мен
зи ть</w>
зем ля
замести теля</w>
зада ний</w>
завое вали</w>
зависи т</w>
заведу ющая</w>
заболе вания</w>
за цией</w>
за трону
за тра
жи те</w>
жда ли</w>
ж ного</w>
ежегод ный</w>
е ние</w>
дона ции</w>
дисципли не</w>
дипло ма</w>
ди ться</w>
ди на</w>
де р</w>
д жи
государствен ных</w>
го тлиб</w>
го вых</w>
гла зами</w>
ги м
геро и</w>
га ть</w>
га зов</w>
га за</w>
га бари
г ря
вы ста
вши еся</w>
вто ром</w>
встре ч</w>
впечат ление</w>
во скре
во н
во ду</w>
ви чу</w>
ви чем</w>
веще ств</w>
вест ник</w>
веду щими</w>
веду щий</w>
ве сен
ве ли</w>
важ ные</w>
ва ющие</w>
ва си
в ё
в ходят</w>
в перед</w>
в м</w>
буду щим</w>
бу дь</w>
богда нова</w>
благодар ности</w>
байкону р</w>
ба бо
ан ге
авиако р</w>
а ф
а ст
» .</w>
volg a</w>
m m
c s</w>
c l
b i
a ce</w>
? "</w>
6 00</w>
4 а</w>
24 2
202 0</w>
194 5</w>
) :</w>
ё ва</w>
эффектив ные</w>
экспер т</w>
ш ков</w>
ш ки
ш к
чи вается</w>
четвер того</w>
черны шенко</w>
ч се
циф ровая</w>
цион но</w>
цен ные</w>
фото ника</w>
форми руют</w>
фина ле</w>
фи т
фи ан</w>
фаль ков</w>
учи тель</w>
учеб е</w>
уча ствует</w>
ува жения</w>
ту зи
ти т</w>
технологи ям</w>
технику ма</w>
техни ческим</w>
тех а</w>
терри тори
тео рия</w>
та ри
студен тки</w>
стре ль
стипен диа
стер а</w>
сте ре
ста м</w>
сравне нию</w>
спортив ные</w>
специали зирован
сп ло
созда ют</w>
со фи
со су
со средо
со бесе
сни м
сло жи
сем ё
секре тар
се те
се кун
са жи
с м</w>
ря т</w>
ры мар
роди тели</w>
роди телей</w>
робо т</w>
реаль ного</w>
ре кор
разработа ны</w>
разви тием</w>
раз о
раз ли
раз деле</w>
ра списа
р ской</w>
р н
психологи ческой</w>
проя вить</w>
профессиона ли
прототи п</w>
пробле ма</w>
про пу
про гре
пример е</w>
при води
преми я</w>
председа телем</w>
прави льно</w>
поня тно</w>
помо г</w>
полу проводни
полез ные</w>
поз д
подхо дов</w>
пода ри
побы вали</w>
по сад
по ру
по ведения</w>
петро ва</w>
пер ви
партнер а</w>
пала ты</w>
отрас лях</w>
отрас ль</w>
отме чены</w>
отве тов</w>
отве тил</w>
отве т</w>
от пра
организова ны</w>
организова но</w>
органи з
обще ственных</w>
обуча ющи
обсужда лись</w>
образователь ное</w>
образ ец</w>
обменя ться</w>
о фи
о пла
о дар
ну и
номина циях</w>
нови кова</w>
ни чего</w>
ни же
не стеров</w>
нача лом</w>
направлен ные</w>
на це
на прави
н к</w>
музе ев</w>
мощ ности</w>
моло дая</w>
може те</w>
мо и</w>
мо гу</w>
много лет
микро ско
мен ь
машинострое нии</w>
материа ло
матве ева</w>
ма й</w>
ля ть</w>
лукаче ва</w>
ло в
ли ще</w>
ли ф
кур со
куль турой</w>
куйбыше вский</w>
креа тив
кре м
край не</w>
косми ческим</w>
конструк ций</w>
конкур сы</w>
кон фе
коллектив ы</w>
ко сть</w>
ка бы
к рая</w>
к в
искрен не</w>
интерес ными</w>
интенси ва</w>
иннова ционные</w>
импуль с
изуча ть</w>
из мер
иден ти
иде ю</w>
ива ну
ива на</w>
и ю</w>
и эу</w>
зи я</w>
зем лю</w>
защит ника</w>
зарубеж ных</w>
занима лся</w>
заме тка</w>
же ле
ен ных</w>
е ха
е ль
ду ха</w>
ду б
други м</w>
доступ на</w>
дми р</w>
дет ства</w>
дени с</w>
д з
д ва
гря з
груп по
груп пи
говор я</w>
глу бин
ги дро
вячесла во
высо кие</w>
выс ших</w>
вы пла
вы деля
вручи ли</w>
возгла вля
водо е
во лей
ве те
василь евич</w>
в ный</w>
в ни
бо лу</w>
ближай шее</w>
ба скет
атмосфер ы</w>
аспиран туры</w>
ар хе
анаста сии</w>
актив ную</w>
а гре
xv iii</w>
u s</w>
9 9</w>
8 1</w>
540 2</w>
4 9</w>
4 2</w>
20 13</w>
20 10</w>
. ).</w>
" !</w>
! ",</w>
яковле ва</w>
явля ть</w>
эскадри лья</w>
эн тузи
электро ники</w>
э тни
э й
ь я
щи хся</w>
ще нии</w>
ще е</w>
щ ую</w>
шев ченко</w>
ше б
ш лось</w>
цик л</w>
ца ми</w>
хро ни
ходя щих</w>
ходи ли</w>
характери стики</w>
х о</w>
х е</w>
форма ты</w>
фор му
фит нес</w>
фи кси
фе ст</w>
ф ар
учё ные</w>
уче ников</w>
участ н
уча ству
успе х</w>
услы шать</w>
универ с
уз лов</w>
у ль
у гро
ть ева</w>
трудо устрой
требо вания</w>
траек тории</w>
точ ности</w>
ти но
технологи ю</w>
технологи ческой</w>
теорети ческие</w>
тен ни
те ори
те а
твор ческие</w>
талан ты</w>
та ком</w>
та кими</w>
т х
сфер у</w>
суверени тета</w>
студен ческое</w>
стар тует</w>
ста в</w>
ст я</w>
способ ствует</w>
способ ных</w>
сп б
социаль ные</w>
сохра нение</w>
соф ья</w>
сотрудни кам</w>
созда ется</w>
собра лись</w>
соб люде
со м
сло вно</w>
ска з
ситуа циях</w>
си т</w>
сентябр е</w>
се ть</w>
се ан
св по</w>
самг му</w>
са т
с боро
руководи тели</w>
ред ких</w>
регуляр но</w>
ре зер
расши ри
распре делен
рас смотрен
рабо чей</w>
р ф
р г
пя ти
публика ции</w>
проходи ло</w>
просветитель ская</w>
програм мой</w>
про ка
про звуча
про жи
приё мной</w>
приня то</w>
призё ров</w>
привле чение</w>
привет ствовал</w>
при чи
при мут</w>
преподава телям</w>
преодо ле
предста вление</w>
предназна чен
предло жения</w>
поче тный</w>
поступи ть</w>
после дова
поря док</w>
популяри зацию</w>
получи тся</w>
поле тов</w>
пол ный</w>
пол ков
позна ва
позволи л</w>
подчер ки
подгото вил</w>
по т
по смотреть</w>
площад ку</w>
пи ц
пел кин</w>
педагоги ческих</w>
педаго гов</w>
пас сажи
па ро
очере дной</w>
откры тии</w>
от ы</w>
от сут
от ряд</w>
ос новой</w>
окончи л</w>
од ну</w>
обы чно</w>
объедини ла</w>
объеди нений</w>
обще жи
обра з</w>
об ще</w>
об станов
об нов
об мен</w>
ну а
номина ций</w>
необ ы
не которых</w>
настоя щим</w>
наноспут ника</w>
назы вае
н ц
н го</w>
мыш ление</w>
мф ти</w>
му р
мо ей</w>
механи змы</w>
мето да</w>
менедж мента</w>
медици не</w>
медици на</w>
ме стом</w>
м м</w>
любы е</w>
лукачё ва</w>
лли н</w>
леони д</w>
лен ных</w>
лауреа ты</w>
ку зин</w>
кру го
кров ь</w>
крае вед
кра си
космонав тике</w>
косми ческую</w>
кор порации</w>
конгре ссе</w>
компью те
коман дой</w>
коллекти вов</w>
ков ской</w>
ко д</w>
клю ча
клас сах</w>
карбо нового</w>
кар ты</w>
каза ни</w>
к ы
к ци
й и</w>
источ ников</w>
иска ть</w>
интере са</w>
инстру мен
иннова ции</w>
инициа тива</w>
иллюмина тор</w>
изгото вления</w>
зы вает</w>
зим ний</w>
захва тыва
заня л</w>
за помина
за м
з ви
жен щи
жде м</w>
ж ные</w>
есте ственно
ен а</w>
единомышлен ников</w>
е лей</w>
е б
ды ха
друго е</w>
дополни тельно</w>
долж ность</w>
дол го</w>
добро воль
дисципли нах</w>
дистанцион ном</w>
диску сси
дипло ма
деле ние</w>
дежур ный</w>
деву шек</w>
де мо
дар ьи</w>
граждан ского</w>
госкор пора
глав ной</w>
гла вы</w>
гиперспек тра
га с</w>
вячесла ва</w>
выпол нения</w>
выпол нение</w>
вузов ская</w>
вуза ми</w>
встре чу</w>
встре че</w>
вол ны</w>
вол га</w>
воз ра
во спа
во обще</w>
владими рович</w>
викто ровна</w>
вид ят</w>
взаи м
веще ства</w>
ветера нов</w>
веде нии</w>
ве щи</w>
ве б</w>
важ ное</w>
ва ло</w>
ва ку
ва йте</w>
буд ди
бу ду</w>
био технических</w>
аэро космического</w>
андре евна</w>
али са</w>
актив ного</w>
акселе рато
а фана
а бо
v r</w>
t y</w>
s u
rocket lav</w>
n o
lib ra
i l</w>
h r</w>
g ra
do a
doa j</w>
a l
5 7</w>
194 2</w>
. .
% .</w>
яро слав</w>
юби лей</w>
ю ма
эта пах</w>
эмо циями</w>
эксперти зы</w>
экспер тного</w>
ье вича</w>
ще м</w>
ше сть</w>
член ами</w>
ча па
цион ным</w>
цен ный</w>
цен ность</w>
хол ди
хо дов</w>
ха й
х у
физи ческой</w>
федорище ва</w>
ф ё
ф обо
учре ждения</w>
учащи еся</w>
установ ку</w>
уси лий</w>
униве р</w>
ува жа
у ин
у дели
ты м</w>
ты вали</w>
турни р</w>
треть его</w>
требу ется</w>
тре ка</w>
тре во
традицион ные</w>
тради ционных</w>
точ кой</w>
то по
тести рование</w>
тель ского</w>
теле фон</w>
тези сов</w>
те н</w>
те бя</w>
тать я
т чик</w>
т ва</w>
сы з
сыз ран
сту ю</w>
сту дии</w>
струк тур
стра хо
сти ческого</w>
спортив ный</w>
специалиста м</w>
специали ста</w>
спектроско пии</w>
сосредо то
сообще стве</w>
созда нный</w>
современ ным</w>
современ ный</w>
совершен но
сове тов</w>
собра л</w>
со кра
смо г</w>
слож ности</w>
сло в</w>
скоро сть</w>
ск воз
си к
сер ии</w>
сем ье</w>
сек циях</w>
сда чи</w>
сана торий</w>
с н
с му
с мир
с ми</w>
с мену</w>
с бо
ры нок</w>
род ных</w>
реши ли</w>
рен ко</w>
реги он</w>
реализу ет</w>
ре цеп
ре цен
рас поло
рабо чи
ра сту
ра спа
ра ма
ра ды</w>
ра ду
р ско</w>
р с
прош лого</w>
профилакто рий</w>
производ ственных</w>
продук тов</w>
проводи лись</w>
провер ки</w>
пробле мам</w>
про е
применя ть</w>
прило жение</w>
прикла дная</w>
при боро
предста вления</w>
поступа ть</w>
поста влен
посвящен ной</w>
попро бовать</w>
помога ть</w>
поли тических</w>
позволя т</w>
повы шен
по ощ
плани рует</w>
пла нах</w>
пи н</w>
пери оди
переда чи</w>
пере гово
педагоги ческое</w>
педагоги ке</w>
п ф
охран ы</w>
оформ ления</w>
отлич но</w>
осуществля ется</w>
организова н</w>
организато рам</w>
опы те</w>
опубли ко
определен ы</w>
оказа лось</w>
огром ный</w>
огром ное</w>
обуче нию</w>
обсужда ли</w>
образователь ным</w>
образ а</w>
об л
о форми
о пере
о п</w>
о логи
о держи
нове й
но сят</w>
нй о</w>
ни когда</w>
не давно</w>
насыщен ная</w>
наи боль
на ко
мя г
молодёж ная</w>
молодеж ных</w>
молодеж ная</w>
молеку л</w>
моби льности</w>
мини ат
ми ссий</w>
метал ли
мер е</w>
математи ческое</w>
мара фон</w>
мар са</w>
мало й</w>
магистран ты</w>
магистран тов</w>
ма ло</w>
луч шим</w>
лич ной</w>
литера тур
ли ги</w>
лен ко</w>
лек цию</w>
ле она
ла кти
культур ных</w>
крем ния</w>
красно яр
косми че
контро ль</w>
конкур сов</w>
коми тет</w>
ко ма
ки ло
й ских</w>
й е</w>
исследова ниями</w>
интерес ных</w>
интерактив ных</w>
индивиду альных</w>
инвести ций</w>
ин вали
из о
и не
и ки</w>
и ем
зо к</w>
зо вой</w>
знаком ства</w>
зна коми
запу ск</w>
заказ чи
зада чей</w>
зада ть</w>
завер шение</w>
заболева ний</w>
за пре
за м</w>
за кре
з вания</w>
жи ли</w>
жен ская</w>
жела ние</w>
жа т</w>
ж но</w>
ж дё
есте ственно</w>
ен т</w>
е ро
доро гие</w>
доно р</w>
докумен т</w>
дова я</w>
доб иться</w>
доб а
до ктора</w>
до во
дмитри я</w>
дире к
деся тков</w>
держа ва</w>
дела ют</w>
дву х
дви жок</w>
двер и</w>
да в
гра ф</w>
государствен ным</w>
госу слу
ги я</w>
ги на</w>
гер ма
геор гий</w>
га ни
вычисли тельной</w>
высо кого</w>
выбра л</w>
вы страива
вы бора</w>
вручи л</w>
времен ем</w>
воен ный</w>
визи т</w>
ви х
вечер а</w>
вер ситет</w>
вер сии</w>
ве т</w>
важ ная</w>
ва кан
ва ди
в ся</w>
большо го</w>
большин ство</w>
ближ него</w>
бе ль
бак тери
архи ва</w>
арте ке</w>
англий ском</w>
англий ской</w>
англий ский</w>
ан тро
али зации</w>
алексе евна</w>
актив ные</w>
администра ции</w>
адди тивного</w>
а ния</w>
а ва
xx i</w>
x iii</w>
v er
r os
p ro
ma il</w>
k a</w>
f e
c t
an d</w>
a t</w>
_p a
7 2</w>
6 9</w>
6 4</w>
40 1d</w>
4 00</w>
240 50
0 8</w>
” .</w>
ющи мся</w>
эта пы</w>
эмо ций</w>
электро нная</w>
экспо на
эксперименталь ного</w>
эксп ре
ы ми</w>
щи ков</w>
щен ные</w>
ща ют</w>
щ а</w>
широ ко</w>
ш не
чис ла</w>
чи ть</w>
чи ст
чен ных</w>
чен ными</w>
челове ку</w>
че в</w>
чапа ев
ч рез
ч им</w>
ци альных</w>
це й</w>
цве та</w>
ц кий</w>
хо ти
характеристи к</w>
форми руется</w>
фо ми
фина ла</w>
федераль ной</w>
ф р
управле нии</w>
уни вре
уверен но</w>
ув р</w>
тя гой</w>
турни ре</w>
тур к
турк мени
труд ности</w>
тр о</w>
то чек</w>
тимо фе
ти ровать</w>
технологи ях</w>
техни ку</w>
тер ми
тель ству</w>
те рии</w>
те ла</w>
твор ческий</w>
талантли вой</w>
таки а
та рий</w>
т ской</w>
т н
сцен а
суверени тет</w>
сту пен
стра ни
стипен дия</w>
сти на</w>
сти л</w>
ствен ному</w>
стал ки
ста ми</w>
ста ви
ст ра</w>
сси ей</w>
сс у</w>
срав ни
спар такиа
сп ер
социо логов</w>
сотрудни ка</w>
созда нной</w>
совмест ные</w>
собы тии</w>
собесе дова
служ ба</w>
сиби р
сертифика т</w>
серде чно</w>
сем ь
север о</w>
се тей</w>
свобо дный</w>
сбор ки</w>
самар ское</w>
с формировать</w>
с кры
с й
с жа
руководи телей</w>
рова нием</w>
робото техники</w>
робо тов</w>
ро вок</w>
ро вой</w>
регистра цию</w>
реа ги
ре ли
ре ак
расте ния</w>
рассмотрен ы</w>
рассказа ть</w>
раскры ть</w>
рас простран
размер е</w>
раз мер</w>
рабо чего</w>
пя тни
пя т
психоло г</w>
профессиональ ный</w>
професси й</w>
промышлен ность</w>
произ о
про цен
принци пы</w>
принима ть</w>
принима л</w>
призё ры</w>
при тя
при бли
преподава ния</w>
предста вят</w>
предприниматель ского</w>
предполага ет</w>
предложи ть</w>
пред ы
пред ше
пре дела
праз д
право вого</w>
потен циаль
поте ря
посети л</w>
посвящен ных</w>
понима ния</w>
помо гли</w>
поль зу</w>
получен ных</w>
полков ник</w>
полез ную</w>
поле т</w>
показа ла</w>
пози цию</w>
позволи ла</w>
подразделе ний</w>
подготов лена</w>
пове ден
площад и</w>
планиру ем</w>
пи на</w>
пере пелкин</w>
пара метры</w>
па ци
п р</w>
п лю
п д</w>
ошиб ки</w>
оши бок</w>
отправи лись</w>
от кро
ориен тации</w>
ор ен
опы тно</w>
опти ма
определя ет</w>
одержи мы</w>
объек ты</w>
объек та</w>
обши р
обсу ждение</w>
образователь ными</w>
об следова
об а</w>
о ло
о д</w>
ня х</w>
нуж на</w>
номина ция</w>
нов ен
но ц</w>
но с
ни к
ни ей</w>
неф тя
нейро сети</w>
не ы</w>
не равно
не большой</w>
находя тся</w>
находи ть</w>
наноспут ник</w>
награ ждены</w>
навер ное</w>
наблюде ния</w>
на счи
на ра
на ка
мусо ра</w>
музы кан
мощ ностью</w>
мо вич</w>
мини е
ми ф
ми ру</w>
ми нера
ми и</w>
меч ты</w>
механи з
меха ника</w>
методо логии</w>
металлу рги
мет р</w>
международ ные</w>
масшта би
малы е</w>
ма рина</w>
ма рии</w>
ма ка
м ры
ля р
ло е</w>
лич ный</w>
ли ть</w>
ли зации</w>
лег кой</w>
ле нин
лазер ной</w>
л ка</w>
культуро логии</w>
культур ной</w>
куйбыше ве</w>
кузне цо
кры с</w>
кри зис
креа тивных</w>
кото р
кост ю
косми ческими</w>
конструктор ского</w>
конкре тных</w>
кон гресс</w>
компьютер ного</w>
компетен циями</w>
коми те
ко но
кле точ
клас се</w>
ки ше
ки р
ки ной</w>
кандида тов</w>
ка ф
к э
й но</w>
истори ков</w>
исследова ниям</w>
ис ь</w>
интерес ным</w>
иннова ционного</w>
иннова ций</w>
инициатив е</w>
из бе
ид ти</w>
и дёт</w>
зя лия</w>
зна ть</w>
звез ды</w>
зая вить</w>
заслужен ный</w>
зарубеж ья</w>
занима ются</w>
заклю чается</w>
заво де</w>
завер ше
за ряд
за плани
за ло
за ключе
за гряз
за гру
за в</w>
з во
жи вого</w>
жи вая</w>
жен ных</w>
жде н</w>
еди ного</w>
евген ьевич</w>
ду мы
друго м</w>
достиже ниях</w>
догово р</w>
дмитри евич</w>
диф рак
диапа зоне</w>
ди т</w>
дета ли</w>
деля тся</w>
дела м</w>
де сан
двига ть</w>
дан ное</w>
дальней шее</w>
да ли</w>
д р
гуманитар ный</w>
группо й</w>
гран тов</w>
гра ду
горизон ты</w>
глу би
гим на
ги пер
гер це
газотурбин ного</w>
выя вления</w>
высо ком</w>
высо ким</w>
выпу ск</w>
вы чай
вы боре</w>
вто рая</w>
вру чения</w>
воспомина ния</w>
викто рович</w>
важ ную</w>
ва шего</w>
ва лся</w>
ва кци
в шим</w>
в ход</w>
в спо
в ное</w>
бюдже тное</w>
бр ен
ботани ческий</w>
бор у</w>
бое вых</w>
бо я
бо м</w>
бо л</w>
би на
ба у
астрономи и</w>
аппара тура</w>
андре я</w>
алю миние
актуаль ность</w>
ак тива</w>
ак ку
адап та
агент ства</w>
аг ро</w>
автомати зации</w>
аби ли
а то
а р</w>
а и
а в</w>
s co
libra ry</w>
j ou
in de
f or
d u
ca l</w>
8 4</w>
7 1</w>
4 4</w>
30 2d</w>
3 3</w>
24 1
ярмар ки</w>
яр кими</w>
язы ком</w>
язы ко
язы ках</w>
ю но
ю мо
эффектив но</w>
эпо ху</w>
эксперимен т</w>
экипа ж</w>
эк стре
э р
э дуар
ы в
ша ку
шаку рова</w>
ш никова</w>
чув ству
чрез вычай
че ний</w>
цион ное</w>
хот ят</w>
харак тер</w>
х ора</w>
фо ку
финанси рование</w>
фило логия</w>
фило логических</w>
федо р</w>
фан та
ф ла
учи тся</w>
учи телей</w>
устрой ств</w>
увиде ли</w>
у шел</w>
у кра
у дар
тыва ем</w>
тури зм</w>
ту и
труд но</w>
транспор тных</w>
ти ческим</w>
техно ло
технику м</w>
техни ческом</w>
темати ческие</w>
темати ке</w>
тель ской</w>
те хо
те с
те ре
та ть</w>
та тар
т с</w>
т ре</w>
суще ству
суще ствования</w>
су ток</w>
су верен
строен а</w>
стра ивать</w>
сти е</w>
старто вала</w>
ста ни
ст ный</w>
спике ров</w>
состяза ния</w>
созда ны</w>
созда л</w>
совеща нии</w>
собра ло</w>
соб ственные</w>
со з
смо три
ско лко
ско л
систе мах</w>
симво ли
си риу
серь ёз
сери ю</w>
серебря ным</w>
семей ной</w>
сда вать</w>
свой ств</w>
сами с</w>
самар с
са мас
с про
с мы
с м
с ви
с ва
с бор</w>
рус и</w>
россий ском</w>
россий ская</w>
рожде ствен
ров ка</w>
робото техника</w>
ро с</w>
ро ли
ро во
реша ли</w>
рейтин га</w>
ре шен
расши рение</w>
расче та</w>
рас счита
разработ ках</w>
работа ющих</w>
ра дмир</w>
ра д</w>
психоло го</w>
професси я</w>
просветитель ской</w>
проку ро
прой дёт</w>
проду ктив
продемонстри ровать</w>
проводи лся</w>
проводи ли</w>
провод ят</w>
проведен о</w>
прове ла</w>
про чита
привле чь</w>
при ка
при бор</w>
преми ю</w>
преды ду
предусматри вает</w>
представлен ных</w>
председа тельством</w>
пред мет
пре ем
практи ческую</w>
прави ла</w>
пра в</w>
появи лись</w>
после дних</w>
помога ли</w>
получи т</w>
поли технический</w>
пол ной</w>
пока з</w>
пози ций</w>
позволи ли</w>
подроб ную</w>
подроб ная</w>
поволж ского</w>
победи телям</w>
по кры
пла н</w>
пла з
пита ние</w>
пи я</w>
пере подготовки</w>
пере ме
первен ства</w>
пе тра</w>
партнё ров</w>
пар к</w>
па у
п то
официаль ном</w>
отно шение</w>
отно си
отличи ем</w>
откры лась</w>
откры вая</w>
отде ление</w>
ответствен ность</w>
осва ива
ос мо
орен бур
организова нный</w>
организа цией</w>
органи зу
ор ке
опре де
он ы</w>
обще е</w>
обраба тывать</w>
оборо т</w>
обо значи
об у
об и
о пи
о е
ню ан
ну не</w>
ново му</w>
нове ния</w>
но мер</w>
необходи мости</w>
неде ля</w>
не у
не та</w>
начина ют</w>
начи ная</w>
нача лся</w>
науч иться</w>
нау ко
наследи е</w>
насле дия</w>
написа ния</w>
нали чи
нака нуне</w>
навига ции</w>
на шими</w>
н м</w>
муж ская</w>
мощ ным</w>
мо ст</w>
мо дера
мл рд</w>
ми ссия</w>
мет рии</w>
международ ную</w>
медицин ских</w>
меда ли</w>
масштаб ное</w>
мара фона</w>
мане же</w>
ма н</w>
ль ному</w>
лице й</w>
ле н</w>
ле ев</w>
ла зе
л э
кур с
куйбыше в</w>
куб сат</w>
ку ри
ксо й</w>
космонав тика</w>
корпу се</w>
коро т
кор руп
конферен ц</w>
конструк ция</w>
конкур сан
кон тек
комплек се</w>
компа к
комму на
ко т
ко стей</w>
кни га</w>
клима т</w>
кли ни
кла стера</w>
ки и</w>
кванто вые</w>
квалифика ции</w>
кафед р</w>
кар би
каза нского</w>
кадро вого</w>
кабы тов</w>
к гс</w>
ито го
истори ографии</w>
исто в</w>
исследова ть</w>
иссле дов
ис ход
инстру ментом</w>
инсти т
инженер ное</w>
индустриаль ным</w>
ин ст
изуча ют</w>
из учить</w>
и к
значи тельный</w>
зна к</w>
здра во
здра в
зая вления</w>
заслу жи
запу щен</w>
заверши лась</w>
за чем</w>
за се
за ранее</w>
за полнить</w>
за пол
з н
жиз не
жигу ле
желе з
же й</w>
ж ер
есте ственные</w>
ежегод ная</w>
е ф
е к</w>
друз ь
друж бы</w>
досту па</w>
долж ности</w>
до вой</w>
дистан ции</w>
дизай н</w>
ди е
ден т</w>
дело вой</w>
дей ствует</w>
де ре
дву мя</w>
да ты</w>
гусе в</w>
губер нской</w>
гу зялия</w>
гу банова</w>
групп у</w>
гру шин
гри п
гост ям</w>
горо ва</w>
горди мся</w>
глуб же</w>
ги бри
геро из
гер мани
ген ери
га ран
г г
выстав ку</w>
выраз ить</w>
выполня ть</w>
вызо вов</w>
выда ющихся</w>
вы рос
все му</w>
вол шеб
во шла</w>
во роб
вне с
вес ри
вдохнове ния</w>
вдохно вляет</w>
ва лась</w>
в пер
бюдже та</w>
борь бы</w>
боро лись</w>
богатыре ва</w>
бога това</w>
бле стя
био логических</w>
бе сцен
бе г</w>
бау мана</w>
б ен
ано нси
ана логи
ан ны</w>
александ ров
акто вом</w>
абитуриен ты</w>
абитуриен там</w>
w or
sp ace</w>
s l</w>
p us</w>
n t</w>
jou rna
g o</w>
e r</w>
cu be
8 5</w>
6 8</w>
5 9</w>
5 4</w>
4 7</w>
4 60
4 1</w>
3 4а</w>
20 00</w>
2 2
194 1</w>
10 00</w>
ю су
ю ре</w>
эффектив ных</w>
эта пом</w>
энерги я</w>
электро ника</w>
экстре ма
эксперименталь ной</w>
экипа жа</w>
э ми
ье р</w>
ь те</w>
ы т</w>
ы нх</w>
ща ли</w>
щ ались</w>
шко м</w>
ше т</w>
ше сти</w>
ше ва</w>
шахма тов</w>
ш ло</w>
чи е
чер те
ч ку</w>
цент ры</w>
хот во
хозяй ства</w>
хо чет</w>
функ ции</w>
фото клуб</w>
фор мули
фон дов</w>
философи я</w>
физ культурно</w>
учи тыва
учи теля</w>
учи т</w>
учи лище</w>
уче ники</w>
уча т</w>
уча т
успеш ного</w>
упра ж
универсти ета</w>
уни весри
ульянов ского</w>
улуч шить</w>
улуч шения</w>
ули цы</w>
укре пить</w>
удоволь ствием</w>
уда чи</w>
уверен ы</w>
уверен ность</w>
увели чение</w>
у л
у гол
тя т</w>
ть я</w>
ть ю</w>
ть ми</w>
ть ев</w>
турни ра</w>
туркмени стана</w>
ту ю</w>
тренин ги</w>
трени нг</w>
трене ров</w>
тре ки</w>
тре ке</w>
то рами</w>
тиму р</w>
ти та
ти рует</w>
технологи ческом</w>
техно л
техни кой</w>
тера герце
теля х</w>
теа тра
те ь
те ря
т су
т ры</w>
т ник</w>
т вра
счита ет</w>
субъек тов</w>
су да</w>
студен том</w>
струк туре</w>
стра нами</w>
стол кну
сти хотво
сте п
ство вание</w>
старше класс
стар те</w>
ста х</w>
спо н
спи к
специаль ностям</w>
состоя нии</w>
соответ ственно</w>
сообще ством</w>
соеди нений</w>
совеща ния</w>
собра ла</w>
соб ственной</w>
соб ственного</w>
со ору
со жа
сни зить</w>
смир нов</w>
скоро ст
сигна ла</w>
си ла</w>
сер ти
сер ия</w>
семина ре</w>
семей ных</w>
связ ям</w>
свиде тель
с ю
с су
с бора</w>
ря да</w>
ру ются</w>
ру ден
ру б
росси ей</w>
рос молодежь</w>
род ной</w>
рован ной</w>
рова лись</w>
робо та</w>
ро си
ри т
реше нием</w>
ресур с</w>
ректо ром</w>
результа тах</w>
реж ис
реаль но</w>
реали зовы
ре в</w>
ре акции</w>
рас стоя
рама нов
ракето строение</w>
раз ным</w>
работ ка</w>
р то
пятни цу</w>
пф о</w>
пу тем</w>
пу та
прохо ждения</w>
профи льные</w>
производ ством</w>
продук та</w>
проду кт</w>
прогно зи
присоеди ня
пример у</w>
примени ть</w>
прило жения</w>
прикла дные</w>
приборо строения</w>
прибо ров</w>
при зами</w>
при ез
преимуще ства</w>
презен то
представлен а</w>
предо твра
предло жений</w>
праздни ком</w>
право вые</w>
прави ло</w>
прави л</w>
появи лась</w>
посо би
посе щение</w>
посвящен ное</w>
пор то
помни ть</w>
полез ной</w>
показа телей</w>
поиско вых</w>
позд нее</w>
пожа лу
подтвер ди
подгото вили</w>
под ряд</w>
по у</w>
по строения</w>
по работать</w>
по н
по дума
по вест
перспек тив</w>
пере се
пен зен
патриоти ческого</w>
партне ром</w>
паро дон
паралле льно</w>
па рус
п нев
п до
оцени вать</w>
оформи ть</w>
официаль но</w>
оф лайн</w>
от ста
от вер
останавли ваться</w>
особы е</w>
особен ностях</w>
ору жи
оригина льные</w>
опы тный</w>
оптими зации</w>
определя ется</w>
описа ние</w>
оказа лся</w>
оказа лись</w>
объя сня
объя снил</w>
обуче нии</w>
образова нию</w>
образ у
об щаться</w>
об служи
о циф
о ва</w>
ново год
никола я</w>
ни у</w>
необходи мы</w>
независи мо</w>
неде ль</w>
невероя тно</w>
не форма
не ожи
нару шения</w>
нагруз ку</w>
нагруз ки</w>
награ ду</w>
на рода</w>
на ме
на гля
н хы</w>
москов ском</w>
моло д
мои се
моду ль</w>
мо их</w>
много профи
меч та</w>
медицин ской</w>
медицин ского</w>
ме мо
мг тд</w>
маги ст
ма ш
ма лен
мален ь
м би
лё г
ля ет</w>
любы х</w>
любо го</w>
люби телей</w>
ли н</w>
лет чи
лек о</w>
лаборато рий</w>
ла тино
л лер
л ды
кур сах</w>
культур ные</w>
ксо го</w>
кру гу</w>
криоген маш</w>
космо су</w>
коро л
концер тов</w>
концеп ции</w>
кон тур</w>
кон тра
комплек ту
компа нией</w>
коман дной</w>
кол лай
коз лова</w>
ключе вой</w>
климати ческих</w>
киберфизи ческой</w>
киберфизи ческие</w>
кей с</w>
карьер у</w>
кар точки</w>
каза н
каждо е</w>
ка в
к ста
к са
й о</w>
исследователь ском</w>
исследователь ским</w>
исследова нии</w>
информацион ном</w>
информацион ного</w>
интересу ющихся</w>
интеллектуаль ные</w>
иннова ционной</w>
индустриаль ными</w>
индивидуаль ные</w>
ин форм
ин фо
ин туи
изобра жение</w>
извест ный</w>
извест но</w>
из мен
ием н</w>
и телей</w>
и на</w>
и гол
зон ы</w>
зо я</w>
зем ле
зе ля
здраво охра
здрав пунк
заяв ка</w>
зая вление</w>
зачис ление</w>
занима ет</w>
зако н</w>
зай цев</w>
задача х</w>
задача ми</w>
зада вали</w>
завер ша
за х</w>
за ги
жу т</w>
жи ву
жде нием</w>
ж ности</w>
ен и</w>
е ме
е ло
ду ю</w>
дро н</w>
допу ска
докла де</w>
дово льно</w>
дни ков</w>
дипломати ческой</w>
диапа зона</w>
дет ского</w>
демо графи
дей ствовать</w>
деву шка</w>
де тьми</w>
де пута
двой ника</w>
два дца
дан ном</w>
да тчи
да ло</w>
да леко</w>
да л</w>
д ным</w>
д ном</w>
д не</w>
д важ
гра д
гото вить</w>
горо жа
гово рят</w>
глубо кого</w>
гла ве</w>
гер ба
га л
вя за
выя вление</w>
выя вить</w>
высококвалифицирован ных</w>
высо кую</w>
высо кая</w>
выпу ска</w>
выез д</w>
вы являть</w>
вы ход
вра ч</w>
вр уча
впечат ления</w>
воскре сен
вос ь
волонте ры</w>
во площа
во пло
во ору
во доро
во де</w>
внутрен ней</w>
вне сли</w>
включе н</w>
весо вых</w>
вес на</w>
вели кого</w>
ве дет</w>
ве ден
вдохнове ние</w>
важней ших</w>
в шей</w>
в ведение</w>
большо м</w>
благотвори тельного</w>
благополучи я</w>
био технологии</w>
библиоте ка</w>
бела руси</w>
безу словно</w>
без вер
бакалав р</w>
базо вых</w>
атле тике</w>
анто нов</w>
ана лого
автори те
а ку
x ix</w>
x i</w>
v e</w>
uni ver
u r
ri a</w>
p o
l e</w>
k ing</w>
k a
ie s</w>
i n</w>
h e
gra m</w>
cube sat</w>
c i
a i</w>
8 2</w>
7 6</w>
20 1</w>
20 15</w>
ё в</w>
яр кое</w>
яр кий</w>
юри сп
юрисп руден
юбиле ю</w>
электро нных</w>
электро нного</w>
элек т
экспре сс</w>
эксплуа тацию</w>
эко логия</w>
эк вон
э ли
э волю
ы ска
ы з
ы ва
ъ ем
ще нием</w>
шта ба</w>
чу ть</w>
чер нов</w>
чемпиона те</w>
челове ческого</w>
челове ческими</w>
че ст
че й
ч ков</w>
це ли
ц уз
ц вет
хоро ший</w>
хими ческого</w>
хи гг
хигг са</w>
хакато на</w>
х рома
финанси рования</w>
физи ческий</w>
физи ологии</w>
факто ры</w>
ф ра
учё бы</w>
учрежде ниях</w>
учи мся</w>
учи ли</w>
учеб ным</w>
участни ц</w>
участ ки</w>
уч но</w>
устойчи вого</w>
установ лен
уско ри
уникаль ной</w>
уни вр
узна ют</w>
узбе кистана</w>
у глуб
тя жё
тх эквон
тури ст
тс кую</w>
трени ровки</w>
трен а
транспорти ровки</w>
транспор тной</w>
траек торию</w>
точ ность</w>
точ ке</w>
точ ка</w>
торже ственной</w>
торго во</w>
то вари
тив ная</w>
техни че
терри тория</w>
темати ческих</w>
теат ра</w>
те тра
те ста
те ние</w>
те ле</w>
та цией</w>
та вли
т э
т ща
сфе р</w>
суще ствует</w>
сту дия</w>
струк тур</w>
строе нию</w>
строе н</w>
стоя л</w>
сторо ну</w>
старта пы</w>
ста не</w>
сси ональ
сре да</w>
способ ствовать</w>
спо собо
соци али
софи я</w>
соревнова лись</w>
сожа лению</w>
согла шения</w>
современ ная</w>
совершен ствова
сове ты</w>
собира ет</w>
сму ис</w>
слуша ли</w>
ско бе
ск ло
ситуа ций</w>
сим пози
силь ней
силь нее</w>
серге ев</w>
серви сов</w>
семест ра</w>
сельхо з
секретар ь</w>
се ссию</w>
се ктора</w>
се й</w>
се зоне</w>
сдела л</w>
сг эу</w>
связа но</w>
свой ства</w>
само ка
самас р
самар скую</w>
сам бо</w>
с ьева</w>
с ша</w>
ря дов</w>
рубеж ом</w>
ру сь</w>
ру к
россий ско</w>
роман енко</w>
роди не</w>
рова на</w>
ро жда
ри не</w>
реши ла</w>
реша ет</w>
ресур сы</w>
реги о
реаль ность</w>
ракето строения</w>
разработа на</w>
разработа н</w>
ра диа
ра да</w>
ра вно</w>
р т</w>
р пе
р ных</w>
путеше ствие</w>
публич ных</w>
публика ций</w>
пу тина</w>
психоло гов</w>
процеду ры</w>
профсою за</w>
профессо рско</w>
профессиональ ным</w>
профессионали зм</w>
професси ю</w>
просве щения</w>
проек там</w>
продви жении</w>
пробле мати
про стой</w>
про ректора</w>
про вин
про анализи
прия тия</w>
приходи тся</w>
притя жения</w>
природ ной</w>
призо вые</w>
приеха ли</w>
при йти</w>
при бор
предела ми</w>
пре вы
практи ческое</w>
посе щения</w>
посвящен ы</w>
посвящен ные</w>
поряд ке</w>
пор шне
популяри зация</w>
попро сили</w>
поли теха</w>
полез ным</w>
пожела л</w>
поддержи вать</w>
под ходе</w>
погру жа
поблагодари л</w>
по тер
по ст</w>
по ст
пленар ное</w>
платфор му</w>
пла не</w>
пись мо</w>
пи шет</w>
петро вич</w>
персона лом</w>
персона ла</w>
переда ть</w>
пе тр</w>
павло вича</w>
п ье
п ти
п ры
охва тывает</w>
охва тыва
отрасле й</w>
отпра вля
отно сите
отличи я</w>
отлич ные</w>
оте ра
отде льно</w>
от че
основ ного</w>
орг комитета</w>
опти ческого</w>
опти ческие</w>
операто ром</w>
оп д
оказы вается</w>
обще ств</w>
образо в
образ ца</w>
обработ ку</w>
обработ ке</w>
оборудова нием</w>
о лёва</w>
ну тся</w>
ну жен</w>
нов городе</w>
но чь</w>
но г
ниже город
ни тельных</w>
ни а
неф те
необходи ма</w>
неде лю</w>
начина ется</w>
насто лько</w>
народ ного</w>
направлен ный</w>
назва нием</w>
награ дами</w>
наблюда ть</w>
н тов</w>
мы сле
музы ки</w>
музы ка</w>
моро зова</w>
мор ского</w>
молодеж ный</w>
мно г
ми гра
мето дами</w>
меся ц</w>
мен ных</w>
между наро
меж д
медицин ские</w>
материало ведения</w>
магни тного</w>
м э
ля ев</w>
лю дми
ль зова
ло о
ло ви
лич ным</w>
лидер ство</w>
леона рд</w>
ле ты</w>
ле бе
лауреа т</w>
лаборатори ях</w>
ла н</w>
л нь
кур сов
ку л
ку би
кста ти</w>
круп ные</w>
кр са</w>
космонав ты</w>
космонав том</w>
космонав та</w>
косми ческое</w>
кор му
контро ли
конструктор ские</w>
коно ненко</w>
конкурс ных</w>
конкурен то
комплек сы</w>
коммерциали зации</w>
коллек ции</w>
ко гни
кв н</w>
карьер е</w>
кар тин
казах стана</w>
каза нский</w>
ка пита
ка ни
ка кое</w>
к ня
к ли</w>
истори ческая</w>
иск во
инклюзи вного</w>
инженер но</w>
индустри ального</w>
инве сто
ин у</w>
ин т
им порто
извест ны</w>
из учен
из ве
игра ть</w>
иг р</w>
и я
и ф
и тета</w>
и ных</w>
и бе
ибе ро
зу б
значи мых</w>
значи мым</w>
знаком ство</w>
здоров ье</w>
запу стить</w>
заня тиях</w>
заги ду
за чё
за пове
за га
з ве
з ва
жид костей</w>
жи т</w>
жи га
жен щины</w>
жден а</w>
еси пов</w>
ен ции</w>
еме лья
ев ны</w>
е мая</w>
е ли</w>
е ги
дру гу</w>
доступ ны</w>
донор ской</w>
догово ра</w>
доб ро</w>
диагно сти
действи ем</w>
де таль
де лом</w>
двигателе строении</w>
двигателе строение</w>
двига ться</w>
дваж ды</w>
дальней шей</w>
даль него</w>
д вое</w>
гуманитар ные</w>
губер нии</w>
гото вят</w>
голо со
глоб аль
глав ных</w>
глав ным</w>
глав ные</w>
ги та
ги ев
геро ем</w>
га лакти
га ла</w>
высо ту</w>
выращи вания</w>
выраз ил</w>
выез да</w>
выбра ли</w>
вы шел</w>
вы хода</w>
вы строить</w>
вы бро
вш э</w>
ву ц</w>
вто рых</w>
воло ки
вол н</w>
вой ти</w>
возмож ных</w>
во дов</w>
внеш ней</w>
вне сти</w>
влия ют</w>
включи тельно</w>
викто ру</w>
ви н</w>
ви ло</w>
ви а
веде ний</w>
ве с</w>
ве ке</w>
ве дли
васи лий</w>
вариан ты</w>
важ ности</w>
важ на</w>
ва ю</w>
ва н</w>
ва лось</w>
в шего</w>
в ше
ботани ческом</w>
борь ба</w>
бори со
бор ге
бол гова</w>
био логия</w>
бизне сом</w>
бал л</w>
бакалав ров</w>
ба т
ба ми</w>
ба л</w>
б ран</w>
ат теста
аспиран туре</w>
ар тур</w>
анти био
андре евич</w>
андре ев</w>
анатоль евна</w>
ан тен
ан ке
амбициоз ные</w>
амар ского</w>
ам ба
альян са</w>
алгорит м</w>
актив ным</w>
академи я</w>
ак ту
адди тивные</w>
авиацион ном</w>
абсолю тно</w>
а про
а ли</w>
v ie
te le
tele gram</w>
t o</w>
sco pus</w>
sc i
q sl</w>
p ad_</w>
m p</w>
in e</w>
i t
i d</w>
f t</w>
c k</w>
b a
a p
9 7</w>
9 5</w>
9 0
8 00</w>
3 а</w>
20 14</w>
2 50</w>
10 2</w>
1 20</w>
) "</w>
ё д</w>
ях т</w>
юри с
юни то
ю ще</w>
эти ми</w>
энтузи а
энерго установки</w>
энергети ческие</w>
элект род
электрод вига
эксперименталь ное</w>
экспер тной</w>
экономи ческий</w>
эко систему</w>
эк стреми
эк зем
экзем пля
эк заме
э вели
ы н</w>
ъ ез
ше стого</w>
ш ься</w>
чте ний</w>
чи ки</w>
чен ность</w>
че л
ча й</w>
ч ь
ч ка</w>
ци то
целе вой</w>
це лый</w>
хрома то
хра нения</w>
хо тел</w>
хо лл</w>
фундаменталь ные</w>
фундаменталь ной</w>
фрон та</w>
фро нто
фран цуз
фран ции</w>
фон е</w>
финансо вой</w>
фили п
физи ческих</w>
фак ты</w>
ф у</w>
ф гбоу</w>
учи лись</w>
устойчиво сть</w>
установ ке</w>
уста навли
успеш ным</w>
управле нием</w>
уникаль ность</w>
уникаль ное</w>
университет ских</w>
университет ские</w>
ун ви
ум ный</w>
удоб рений</w>
угле рода</w>
уверен а</w>
увели чения</w>
убе ди
у ст
у пу
у п
у лы
у глуби
тя ги</w>
тхэквон до</w>
ту рах</w>
трудо вой</w>
трудо вого</w>
тру ду</w>
тру дни
точ ку</w>
то сть</w>
то вой</w>
тин гу</w>
тин га</w>
ти ков</w>
тера пии</w>
тера пев
тер на
теп ло</w>
темпера туры</w>
темати ка</w>
теле коммуникаций</w>
те ст</w>
те ния</w>
те мам</w>
тан цы</w>
тан цев</w>
та не
тане ц</w>
та л</w>
т ному</w>
ся н</w>
сы гра
съез да</w>
схе мы</w>
сфе рой</w>
студен ческом</w>
сту пления</w>
струк туру</w>
стра нах</w>
сти те</w>
сти лем</w>
ству я</w>
ствен ность</w>
стара емся</w>
стар та</w>
стажиров ку</w>
ста я</w>
ст у</w>
ст вам</w>
спут ником</w>
спут ники</w>
спра ведли
способ ны</w>
спо ко
спла в</w>
спис ка</w>
спике р</w>
спи та
специфи ку</w>
спб гу</w>
сотру дн
сопрово жда
сом нен
сойфер у</w>
созда ются</w>
созда нная</w>
сове том</w>
собы тиях</w>
собствен ности</w>
со пер
со ли
со зи
смо гла</w>
следу ющего</w>
следи ть</w>
сколко во</w>
ско рее</w>
ска ни
ситуа цию</w>
систе мам</w>
сириу с</w>
сет ях</w>
сельскохозяй ственных</w>
се я
сдела н</w>
самоле тов</w>
сам ра
са рки
са леев</w>
са ду</w>
са дов</w>
са ам
с че
с проекти
с ми
с мер
с ведения</w>
с бе
ря де</w>
ря бов</w>
рымар я</w>
ру я</w>
ру ющие</w>
росси ю</w>
роди ны</w>
род ро
робо ты</w>
ро ждение</w>
ро ав
ри су
рекла ма</w>
реда ктор</w>
ред кие</w>
расширя ть</w>
расши рения</w>
рай она</w>
разработа нный</w>
различ ными</w>
разви ть</w>
раз раб
раз ными</w>
раз гово
работода телями</w>
работа ем</w>
работ ке</w>
рабо чим</w>
ра сти
р ских</w>
р ной</w>
психологи ческих</w>
пси хи
проце ссом</w>
профи ля</w>
профессиональ ном</w>
прост ых</w>
промышлен ные</w>
промышлен ной</w>
про чность</w>
про тив</w>
про те
про па
про дела
приро до
приобре сти</w>
пример ы</w>
примене нию</w>
пригла шение</w>
при шлось</w>
при бы
представля ют</w>
представля ла</w>
предста в
предвари тельная</w>
пре сс</w>
практи ческого</w>
правле ния</w>
прави тельство</w>
почё тный</w>
поч ту</w>
потреб ность</w>
потреб ности</w>
потен циальных</w>
пота нина</w>
поло ви
поли тика</w>
поле й</w>
пол не</w>
поко ри
поздра вление</w>
подтвержда ет</w>
подраз уме
подня лся</w>
поддержи вает</w>
пода ва
погру жение</w>
победи теля</w>
по строить</w>
по степен
по ри
по пы
по пол
по й
по го
по вре
пленар ного</w>
пило тов</w>
пило тиру
пило та</w>
пи я
петербург ский</w>
пе ти
пе е
пав лов</w>
п с</w>
оче вид
оч ный</w>
отря ды</w>
отрасле вых</w>
отобран ы</w>
отзы вов</w>
отде льных</w>
оста лись</w>
особо го</w>
основа нии</w>
основ ными</w>
осен ью</w>
освое ние</w>
ос вя
органи ческих</w>
определя ть</w>
опи ра
он ных</w>
октябр ь</w>
оказа ться</w>
оди н
один надца
од ни</w>
объ являет</w>
обще ство
обще м</w>
обуча ются</w>
обуча ется</w>
обсу дить</w>
обрати л</w>
образователь ном</w>
обработ ка</w>
обра щения</w>
обра тную</w>
обо зна
област ная</w>
облада ют</w>
облада ть</w>
обеспечи ва
о ц</w>
о р</w>
о не
о кти
о ду</w>
ня и</w>
ну жда
носите лей</w>
ниж нем</w>
ни кс</w>
ни же</w>
ни верситета</w>
немец кого</w>
нейросе тей</w>
не сомнен
не весо
невесо мости</w>
не бо</w>
настояще й</w>
народ ных</w>
наро дов</w>
напол нен
нали чие</w>
награ д</w>
навига ция</w>
на н
н рав
н ми</w>
н ка</w>
музе й
мотива ции</w>
москов скому</w>
молодеж ью</w>
мо мента</w>
много гран
миф и</w>
мини ми
ми тро
механи ко</w>
методи ки</w>
металлу р
мер у</w>
меня ется</w>
международ ное</w>
межвузо вского</w>
мг ту</w>
машин ы</w>
массо вого</w>
маршру т</w>
мани пуля
малы й</w>
макси ма</w>
ма ть</w>
м ё
м ж
ля м</w>
лу ю</w>
литера туро
лет ний</w>
ле чение</w>
ле дова
лаборатори ей</w>
ла ь
ла би
лаби рин
курато р</w>
кур ча
культур ный</w>
кто ром</w>
кти ке</w>
кру то</w>
креп кого</w>
кос м
конфли ктов</w>
конферен циях</w>
контен та</w>
контек сте</w>
контак тная</w>
конструк цию</w>
конкурс ной</w>
конкре тные</w>
коне ц</w>
кон тей
коми ссией</w>
коллек тивного</w>
колле дже
колледже й</w>
кну л</w>
ключе выми</w>
клу бов</w>
китай ских</w>
карьер ных</w>
кар ту</w>
кана ле</w>
ка ри
ка ра
ка б</w>
к лё
ию не</w>
ито гов</w>
ит мо</w>
исследова нию</w>
исключи тельно</w>
инфраструк туру</w>
интересу ется</w>
интерактив ные</w>
интер пре
интенси в
инстру мента</w>
ин ы</w>
ин фе
име ющих</w>
изгото вили</w>
из го
иг на
и ческого</w>
и лю
зо нов</w>
значи мости</w>
зем ной</w>
зе лен
здравпунк те</w>
здоро вого</w>
защи той</w>
запу стили</w>
заинтересова нность</w>
заез ды</w>
зада ние</w>
за ря
за ренко</w>
жи вать</w>
женщи н</w>
же те</w>
же сто
ж ный</w>
ен ты</w>
ен о</w>
еже дне
евро пе
ев р
е хно
е вой</w>
ды х</w>
доступ ности</w>
достой но</w>
достиже ниям</w>
дости чь</w>
докумен тации</w>
диску ссия</w>
ди о
джа зо
дет ский</w>
ден ь
ден ты</w>
деко ра
дека бре</w>
действи ю</w>
дей ствова
де ва</w>
дву м</w>
двой ных</w>
дан ными</w>
д л</w>
д в
гуманитар ной</w>
гри гор
гранто вой</w>
грамо тности</w>
грамо тно</w>
грам ма</w>
госуслу ги</w>
говори м</w>
го дов
гео данных</w>
генера ла</w>
г ту</w>
г мен
г лю
г ло</w>
вё р
выступле нии</w>
высо ты</w>
выража ют</w>
выпуск ных</w>
выпуск ной</w>
выполнен ных</w>
выпла т</w>
вы шла</w>
вы ходит</w>
вы зов</w>
вы гля
вступи тельных</w>
вселен ной</w>
все мир
вру чение</w>
воро не
воз мо
воз духо
во ст
во е
внутрен него</w>
внедре нию</w>
влен о</w>
ви таль
ви жу</w>
взгля нуть</w>
взаимо действии</w>
веду щего</w>
веду тся</w>
ве льев</w>
ве л
важ ны</w>
ва л
ва жен</w>
в ская</w>
в полне</w>
в носит</w>
бор товых</w>
бор та</w>
близ ким</w>
биологи ческий</w>
бабо чек</w>
аэро ста
ауди торию</w>
ат ло
аппара том</w>
анто ни
анге лина</w>
аль терна
акти ви
автомати чески</w>
авиацион ным</w>
а ние</w>
а лё
а вари
z а
y ou
v ii</w>
univer si
tu r
tu d
th e</w>
t a</w>
s tud
s te
s ta
s t</w>
ru ssi
pr o</w>
p _ad_</w>
g o
g e
9 4</w>
8 6</w>
7 9</w>
5 3</w>
4 50
202 7</w>
20 36</w>
20 17</w>
20 16</w>
199 1</w>
0 9</w>
0 7</w>
% ,</w>
” ,</w>
я л</w>
ющи йся</w>
юрис дик
юрисдик ции</w>
юри стов</w>
юр ьевна</w>
ю лии</w>
эти ческих</w>
эстафе та</w>
энергети ческого</w>
электро нные</w>
элек три
эле мент</w>
экстреми зма</w>
эксплуа тация</w>
экспер та</w>
экскур сию</w>
экскур си
экра но
экономи ческие</w>
экза мен
эк ст
экст рен
э т</w>
э ски
ь ма</w>
ь ко</w>
щер ба
щен о</w>
ще нию</w>
шо с</w>
ша ха
шаха з
шахаз из
ш у</w>
челове чества</w>
ч ьи</w>
ч о
цифрови зации</w>
цион ном</w>
цио лко
цент у</w>
цен но</w>
це ло
ца то
хра ни
хол ле</w>
хо ть</w>
хо ждение</w>
ха н</w>
х ни
функциони рования</w>
функ ций</w>
формиру ются</w>
фо в</w>
физи отера
фи гу
ферен ции</w>
фе окти
фар ма
фак ти
фа это
фа й
ф ур
учи л</w>
уче ной</w>
уф е</w>
устано вить</w>
успе ха
ураль ского</w>
управля ющий</w>
универсиа де</w>
универса льной</w>
универ стета</w>
уни евр
укрепля ет</w>
укрепле нии</w>
узна ла</w>
узна л</w>
уголо вного</w>
у по
у казы
у ка
у го
тя с</w>
ты р
тур ные</w>
трё х
тради циях</w>
тради ция</w>
точ нее</w>
тор у</w>
то вский</w>
ти ту
ти рования</w>
ти ны</w>
ти ка
ти вой</w>
техни ческая</w>
тера пия</w>
тер пе
тепло вых</w>
тек стов</w>
те ста</w>
творче ству</w>
та м
та ет</w>
т я</w>
т ф</w>
т ского</w>
т рас
т рам
т ку</w>
съ ем
счита ется</w>
счаст ли
суб си
су д
струк тури
стреми тся</w>
стоя т</w>
сто лько</w>
сти ческих</w>
степен ь</w>
ство вала</w>
стви й</w>
ста ро
ста вит</w>
ст ц</w>
сред нем</w>
спра ши
спра вка</w>
спортс мен
спор ту</w>
спор те</w>
сп ц</w>
сп р
социо логия</w>
социали стического</w>
сохран ять</w>
сохра нению</w>
сосу ди
соста вит</w>
соревнова ние</w>
сол н
созда нных</w>
созда нного</w>
созда ем</w>
созда вая</w>
совмест ная</w>
совеща ние</w>
совершенно лет
сов па
соб ственный</w>
сни жение</w>
смы сло
сме шан
сма арского</w>
слож ная</w>
сли шком</w>
следи те</w>
скоро сти</w>
ско ро</w>
ско г</w>
сквоз ь</w>
сказа ла</w>
сим па
серти фицирован
серге ем</w>
сен со
сем ью</w>
сегодняш ний</w>
се ми</w>
се ми
се лек
се л</w>
се д
сда ть</w>
сва ро
сбор нике</w>
сбор ник</w>
сбер банка</w>
с чё
с ного</w>
с мыш
ры м</w>
роман ти
род ным</w>
род ного</w>
рован ный</w>
рован ного</w>
рова но</w>
ро стова</w>
ро ждаются</w>
рекла ме</w>
реж им</w>
региональ ные</w>
реги стр</w>
реализу ют</w>
ре нии</w>
ре мен
рг ыз
распределен ной</w>
раскры тия</w>
раке тный</w>
разраба тывать</w>
разнообраз ия</w>
раз ру
раз ова
раз дели
радиолока ционного</w>
ра ди</w>
р уч
р со</w>
р са
р ма
р бо
пуч ков</w>
прошед ший</w>
процес су
процен тов</w>
профсоюз ной</w>
профилакто рии</w>
профи льных</w>
проекти ровании</w>
прогно зировать</w>
проведен а</w>
проведе н</w>
пров ёл</w>
про тести
про смо
про вай
прия тным</w>
приуро чен
приорите тных</w>
принци пи
принци пах</w>
приводи т</w>
при чин
при сво
при кос
при ключе
прем ьер
преж нему</w>
представля л</w>
предприниматель ство</w>
предоста вление</w>
предоста вить</w>
предме ты</w>
предлага ем</w>
пре тен
пре образования</w>
пре вос
прав да</w>
поче тного</w>
поч та</w>
поступле ние</w>
посо л</w>
послед ствии</w>
посети телей</w>
посвящё нная</w>
посвящен о</w>
пора дова
популяр ные</w>
поло жения</w>
показы вают</w>
показы вает</w>
поезд ка</w>
подтвер дили</w>
под рост
погрузи лись</w>
повседне вной</w>
поволж ья</w>
по строен
по влия
плани рования</w>
пла змы</w>
пи ш</w>
пи ксе
пере ход</w>
пере вод
первокурсни кам</w>
педагоги ка</w>
пе ще
пе гас</w>
пау эр
пародон ти
пар никовых</w>
пар ка</w>
па ры</w>
п юре</w>
п гу
пгу ти</w>
ощу щение</w>
оч ная</w>
оцен ке</w>
оф ис
отра ба
отлич ной</w>
откры ть</w>
откры тое</w>
откры тий</w>
отече ствен
оте ц</w>
отде льное</w>
оста ваться</w>
особен ность</w>
органи змы</w>
орга нами</w>
ор лов</w>
опы тные</w>
опре деления</w>
опера тивно</w>
оп к</w>
онто логи
оль ги</w>
оле го
окружа ющей</w>
оказа лась</w>
озна чает</w>
обяза нности</w>
объек т</w>
обрати лись</w>
обраба тыва
об ходи
об е</w>
о ре
о но
ня ет</w>
ново ст
ново сибир
но ч
никола евна</w>
неравно душ
нер ы</w>
нер а</w>
не ш
не о
не ва</w>
наш ли</w>
науч ились</w>
настояще го</w>
направлен ности</w>
направи ть</w>
напомина ем</w>
наличи и</w>
наиболь шее</w>
на строй
на строение</w>
на ло
на гре
н ём</w>
н уч
н ти</w>
н сти
монитори н
моду ля</w>
многи м</w>
миро вых</w>
милли онов</w>
ми н</w>
меха тро
методи ческий</w>
метал ло
меся ца</w>
меня ются</w>
меня ть</w>
меня ет</w>
междисциплинар ных</w>
меж университетской</w>
меж вузов
меж ведом
ме ров</w>
мг п
машинострое ние</w>
машиностро ителей</w>
маши н</w>
матве й</w>
масшта б</w>
маркетин говых</w>
макси мум</w>
магистран т</w>
магистра туру</w>
ма кет</w>
ма е</w>
м по
м н
люд ях</w>
ль н
лы ми</w>
ло к</w>
лице я</w>
лингви стика</w>
ли ст</w>
лет няя</w>
лек тория</w>
лек торий</w>
лег ко
лды бина</w>
лазер а</w>
кы ргыз
ку х
кто ров</w>
кро сс</w>
кри стина</w>
королё в</w>
кораб ля</w>
компьютер ное</w>
коммуна ры</w>
коман дами</w>
ком на
коло сса
ко ф
ко ла
ко заренко</w>
ключе вую</w>
клима та</w>
класси ческие</w>
ки но</w>
кванто вого</w>
каса ющиеся</w>
кар та</w>
каби нете</w>
ка но
ка мера</w>
к са</w>
к но
использу я</w>
использова нии</w>
искус ственным</w>
интерес ной</w>
интере сом</w>
интер нете</w>
инжене рами</w>
индустриаль ные</w>
индивидуаль ной</w>
инде кси
ин и</w>
имен а</w>
им муни
изуче нием</w>
изобре та
измене ниям</w>
изме рения</w>
из ыска
и щу
и ч
и тся</w>
и ной</w>
и н</w>
и лся</w>
зо й</w>
зо в
значи тельные</w>
знамен а
зна ком</w>
зна ко
земле дели
здравоохра нения</w>
зда ния</w>
запуска ет</w>
запу ску</w>
за н
за лу</w>
за кан
за гля
з рение</w>
жизнен ного</w>
жи вые</w>
жен ные</w>
жен ной</w>
ж ке</w>
ер ситет</w>
емелья ненко</w>
екате рины</w>
ежегод ной</w>
еди ной</w>
е тесь</w>
е сти
е ра
дя л</w>
друзь ями</w>
доро ва</w>
долж но</w>
докумен то
доб ра</w>
до центу</w>
до сто
до маш
диссерта ций</w>
диссер тации</w>
диску ссий</w>
директо ром</w>
дипло мами</w>
дипло м
динами ческих</w>
ди ю</w>
ди те</w>
ди н
деятель но
демонстри руют</w>
дека на</w>
де й</w>
дви жении</w>
да вления</w>
д ят</w>
д ром</w>
д ке</w>
группи ровки</w>
гра фа</w>
гра вита
готов ности</w>
гото вых</w>
гото вки</w>
гото вит</w>
город ской</w>
гордо стью</w>
гордо сть</w>
голо с</w>
го вой</w>
геро и
геннад ьевна</w>
га я</w>
г л
г б
вьетна ма</w>
выступа ют</w>
выступа ли</w>
высокотехнологи чных</w>
выда ющиеся</w>
выбира ть</w>
вы полни
вы платы</w>
вы йти</w>
вш ись</w>
вузо м</w>
встреча ются</w>
вспо мни
всероссий ские</w>
вселен ная</w>
времен ной</w>
вра ча</w>
вр учены</w>
впер ёд</w>
восто чный</w>
восстано вления</w>
воспита ние</w>
воскресен ье</w>
вос хи
вопро сами</w>
возмож ные</w>
воздуш ного</w>
возглавля л</w>
води тель</w>
во сти</w>
во р
вля ть</w>
викто рина</w>
ви тации</w>
ви ков</w>
вз ять</w>
вес ны</w>
верну лся</w>
вер ситете</w>
веду щим</w>
ве дё
вакан сий</w>
ва ше</w>
ва нии</w>
ва нием</w>
ва вших</w>
в ступа
в последствии</w>
в носи
в кус
в к
в зо
ботани ческих</w>
бота ники</w>
болез ни</w>
бло ки</w>
бли же</w>
библиоте ке</w>
библи о
бе ля
бе лый</w>
бал ла</w>
бак терии</w>
ба чин
ба х</w>
ба с
ба ла
аэроби ке</w>
аэроби ка</w>
аэро космические</w>
аэро косми
афана сьева</w>
аф ри
ассоциа ция</w>
ас мар
арте ка</w>
арен е</w>
анти пов</w>
англий ского</w>
анали тика</w>
американ ского</w>
алё на</w>
аль ное</w>
аль ная</w>
аль га
александров ны</w>
ак креди
автомати зация</w>
авто ром</w>
авто ва
а ла</w>
а ет</w>
а де
y si
th e
sci f
pe n</w>
o pen</w>
me s</w>
m e</w>
m a</w>
l l
gi to</w>
e x
di re
co gito</w>
ca mp</w>
b ac
9 2</w>
460 401d</w>
2 1
10 х
1 6
0 6</w>
… "</w>
я ся</w>
я с</w>
юще йся</w>
юриди ческие</w>
юма шев</w>
юж ного</w>
эффектив ного</w>
эффектив ная</w>
эти ке
энерги й</w>
электро нике</w>
экспози ции</w>
эксперименталь но</w>
экспе ди
э фи
ъ я
щен ных</w>
школь никами</w>
шко ва</w>
ше нием</w>
шахазиз ян</w>
ш тур
штур мо
чув ство</w>
чу де
четвер г</w>
чемпиона т</w>
ча ть</w>
ч ём</w>
ч т</w>
цито ки
цион ными</w>
цик ло
циали стов</w>
ци ви
церемо нию</w>
цен ных</w>
целе вого</w>
цато д</w>
ца и
ц у
хоти м</w>
хозяй стве</w>
ходи ло</w>
хо й</w>
хе я</w>
хар ь
х ле
х во
фё до
фут боль
форма тах</w>
фор м</w>
фобо са</w>
философ ских</w>
физиотера пев
физи ку</w>
феокти стова</w>
ф ы</w>
ф лек
уч и</w>
утвер жда
успеш ную</w>
успе хи</w>
уско рить</w>
ур са</w>
уникаль ными</w>
уникаль ным</w>
университе а</w>
университ та</w>
уни что
уме ть</w>
уме ния</w>
ули це</w>
уи верситета</w>
углерод ного</w>
увлека тельный</w>
уважа емые</w>
у слу
у па
у мень
у ме</w>
у к
тя м</w>
тя ги
трудоустрой ству</w>
трен ды</w>
трансформа ция</w>
транспор тные</w>
тр у</w>
точ ностью</w>
тольяттин ского</w>
то ре</w>
то ра
то на
то ма</w>
то кси
то вого</w>
тив ность</w>
ти м
ти зации</w>
технологи ческая</w>
тер мо
тель ские</w>
тель ностью</w>
тель ница</w>
тел нь
те ка</w>
те бе</w>
твор ческую</w>
т но
т ме
т л</w>
ся к</w>
счаст ья</w>
суще ственно</w>
суббо ту</w>
су ти</w>
су н</w>
студен чества</w>
строи тельства</w>
стро й</w>
стрем ление</w>
стол к
сто мато
сто лы</w>
сто лице</w>
стипенди ального</w>
сти му
стен до
стани слав</w>
стажиров ка</w>
став ку</w>
ста ди
ст ет</w>
сса до
спут нико
спут нике</w>
спу ска
спо льзова
спла вов</w>
спла вления</w>
специаль ного</w>
специали зи
спа са
сп у</w>
сочета ние</w>
социаль ная</w>
состоя нием</w>
соста вом</w>
соста вил</w>
сок й</w>
сок го</w>
соз д
современ ными</w>
современ ное</w>
совмест ный</w>
совер ши
сов на</w>
собра ть</w>
со ш</w>
со й</w>
со действие</w>
со вре
смыс ле</w>
смо жете</w>
смешан ном</w>
слуша тели</w>
сло во</w>
след ственного</w>
сла д
сла вы</w>
сказ ка</w>
ска зы
ска зо
ск й</w>
симпа тий</w>
сиби рского</w>
си нер
си муля
серьез ные</w>
серге ю</w>
сер гиев
сен ных</w>
сель ском</w>
сель ского</w>
се я</w>
сг спу</w>
свер шений</w>
сбор ке</w>
сбере га
сбер банк</w>
самолё тов</w>
самока т</w>
сами м</w>
са у
са ла
с формули
с наря
с лы
с ла</w>
с G
ря ды</w>
ры бы</w>
рус лана</w>
руковод ству</w>
рубе ля</w>
ру ки</w>
ру к</w>
рос молодёжь</w>
роди телям</w>
роди нов</w>
род ствен
ро зы
редак цией</w>
региональ ная</w>
реаль ным</w>
реализу ются</w>
реак ций</w>
ре пети
ре нию</w>
ре ки</w>
ре е
ре ду
расширя ет</w>
расши рен
расска жут</w>
расска жите</w>
расска жет</w>
распростра нения</w>
ран ы</w>
раке та</w>
рай оне</w>
разработа нная</w>
различ ным</w>
разбира ться</w>
раз обра
раз де
раз вле
раз ве
радиа ции</w>
рабочи х</w>
работода теля</w>
рабо чие</w>
раб то
ра т
ра сти</w>
ра об
р ь</w>
р ские</w>
р во
публика ция</w>
проя ви
прохо ждение</w>
профориента ционной</w>
профессо ром</w>
профессиональ ному</w>
профессиона лов</w>
противо показа
просветитель ского</w>
прозвуча ли</w>
проек тного</w>
продол жение</w>
продви жению</w>
программ ных</w>
программ ный</w>
проводи м</w>
проводи лась</w>
проведе нию</w>
про ч
про ход
про ректо
про раба
про гр
приё ма</w>
приё м
прикос нуться</w>
привлека ет</w>
привет ствовали</w>
при над
принад ле
преподаватель ский</w>
прези ди
презен тацию</w>
предусмотрен а</w>
представля ть</w>
представлен ные</w>
представи теля</w>
предпринима й</w>
предме тной</w>
предме т</w>
предлага ется</w>
предлага ет</w>
пред сказа
прави лах</w>
поя вление</w>
поэ зии</w>
поступи ло</w>
поступа ющих</w>
постепен но</w>
посети тели</w>
посвящё н</w>
посвящен ную</w>
посад ки</w>
популяр ное</w>
поня л</w>
понима ют</w>
понима нии</w>
пользова телей</w>
поль зу
получи лась</w>
полномо чи
пол ного</w>
пол к</w>
пол года</w>
поко ле
показа л</w>
поздра вляет</w>
подчерки вает</w>
подроб ности</w>
подписа ния</w>
поддержа ли</w>
поддерж ан
подготови тельные</w>
подготови ла</w>
подгото вить</w>
подвод я</w>
под ходя
под секции</w>
под нима
под ключи
под ка
поволж ский</w>
по са
по полни
по пова</w>
по году</w>
по ведение</w>
плю с</w>
плодо роди
плато нов
планиру ют</w>
планета рия</w>
пла вания</w>
пита нием</w>
пи т
пи сан
перегово ры</w>
пере ч
первен стве</w>
пер ен
пер выми</w>
пер в
пауэр лиф
пане льной</w>
памя тными</w>
па н
па мур
п ят</w>
п ных</w>
оче видно</w>
оч ную</w>
официаль ный</w>
отрасле вой</w>
относите льно</w>
отли чается</w>
открыты м</w>
откры ты</w>
откры лся</w>
откры ли</w>
откры ла</w>
отече ственного</w>
отде льные</w>
отвер сти
отборо чный</w>
от ф</w>
оста ться</w>
особо й</w>
осо бую</w>
основа ми</w>
основ ном</w>
осво ить</w>
ос л</w>
оренбур г
органи зовать</w>
определи ли</w>
оп т</w>
объедини ло</w>
обще ственного</w>
обще ственно</w>
обстанов ке</w>
обозначи л</w>
обнов лен
об ор
о си
о ми
о кто
о деж
о гла
ны неш
ны не</w>
ну л</w>
нрави тся</w>
нор мы</w>
нор мати
нов у</w>
но о</w>
но гра
низ ких</w>
ни каких</w>
ни за
неф ти</w>
необходи мых</w>
нен ных</w>
нейросе ть</w>
ней тра
не шта
не совершеннолет
не доста
нач нется</w>
националь ные</w>
наталь и</w>
настав ник</w>
нару шений</w>
напря мую</w>
направле ниями</w>
наноспут ники</w>
наи ль</w>
назем ной</w>
надеж ность</w>
навига тор</w>
наблюда тельного</w>
на та
н ью</w>
н са
н ков</w>
мыс лить</w>
муж чин</w>
мпи кс</w>
моно графии</w>
молодеж ном</w>
мож ность</w>
моду ли</w>
мо нова</w>
многочислен ные</w>
много образ
много м</w>
миха и
митро поли
министер стве</w>
ми ни</w>
методи ка</w>
мет ра</w>
мене дже
меж звез
медицин ский</w>
ме тра
мгп пу</w>
машин ного</w>
математи ческие</w>
массо й</w>
ман ту
маги стер
ма га
ма в
м мы</w>
м боу</w>
лё тчик</w>
лё тчи
ля ции</w>
людми ла</w>
любо м</w>
лю бую</w>
ль ю</w>
лыж ным</w>
ло н
ли мов</w>
лен но</w>
лек цией</w>
легко атле
лег че</w>
ле чеб
ле том</w>
лагер я</w>
лаборатор ных</w>
лаборатор ные</w>
ла я</w>
л ки</w>
курсан тов</w>
культур у</w>
ку ру
кто ры</w>
кто м</w>
кры сы</w>
круп но
круг лые</w>
крити чески</w>
криоген ной</w>
кри тери
космодро ме</w>
корруп ции</w>
корре к
кор не
концер те</w>
конструктор ское</w>
конструи рования</w>
конкурс ного</w>
компонен ты</w>
комплекс ный</w>
ком со
ком по
коллектив ный</w>
коллекти вами</w>
количе ством</w>
количе стве</w>
коли бр
колибр и</w>
ко жи</w>
ко вый</w>
ко вого</w>
кн р</w>
кисло ты</w>
кило метров</w>
кванто вая</w>
квалифика цию</w>
ката стро
карьер ного</w>
кар те</w>
каза лось</w>
каж дую</w>
ка меру</w>
ка кую</w>
к же</w>
к ем</w>
ищу т</w>
истори ко</w>
исследова телям</w>
испыта ниях</w>
испыта ниям</w>
использова нию</w>
исполни тельной</w>
искво рин</w>
ион ной</w>
информацион ная</w>
интересу ющие</w>
интеллек том</w>
инте л
индивидуаль ным</w>
ина че</w>
импорто заме
изме рений</w>
извест ных</w>
игор я</w>
ива нович</w>
и ци
и ц
и те</w>
и ного</w>
и ж
и дут</w>
и горе
и го
зри тельских</w>
зри тели</w>
зна чения</w>
зна ки</w>
зна ем</w>
здоров о</w>
зая вил</w>
защи ту</w>
заслу ги</w>
заня тие</w>
замести телем</w>
закон чи
заез да</w>
загиду ллин</w>
заверше нии</w>
зав тра
за ста
за очной</w>
за жига
за действова
за д
за бе
з му</w>
журнали стика</w>
жид кости</w>
жи тели</w>
жи на</w>
жи й</w>
жен ным</w>
жен ный</w>
жде ний</w>
жа ют</w>
жа л</w>
ж ном</w>
ере ми
един ства</w>
е с</w>
е р</w>
е ле
духо вно</w>
ду ше
дру жи
дро ны</w>
доступ но</w>
досту пе
донор ское</w>
донор ского</w>
докто ран
дова ния</w>
доб ива
дн ём</w>
дмитри евна</w>
динами ку</w>
ди нов</w>
ди не</w>
дз ю
деся тки</w>
дела ем</w>
дей ствующих</w>
де рев
де ви
дви жи
дви же
дан ному</w>
да ции</w>
да н</w>
да ла</w>
да вали</w>
да ва
д ры</w>
д к</w>
д за</w>
гры зу
графи я</w>
гражда не</w>
государ ств</w>
гост ями</w>
гон ча
гон ки</w>
гон кам</w>
глубо кие</w>
ги н</w>
гео информатики</w>
гб поу</w>
гар мони
газе ты</w>
га ври
г тд</w>
г к</w>
г ек
вячеславо вна</w>
выступи т</w>
выста во
выс шее</w>
выраз или</w>
выража ем</w>
выпуск никами</w>
выз вал</w>
вузо вского</w>
вто р
вс хо
восто к</w>
вол го
водое мов</w>
води тся</w>
внутри вузовской</w>
внутри вузовская</w>
внутрен ний</w>
внед рен
влен ный</w>
вклю чены</w>
визу альных</w>
виде л</w>
ви я</w>
ви ру
ви дам</w>
вете ран</w>
вес ьма</w>
вес ной</w>
верто лё
вер шин
вер тика
вер ить</w>
вер и
вен а</w>
ве се
вае те</w>
вае мых</w>
ва ний</w>
ва н
ва ле
в ъез
в ходящих</w>
в ход
в со
в рубеля</w>
в ным</w>
в место</w>
в ку</w>
в ке</w>
буду щий</w>
бри кс</w>
бра ть</w>
бра т
ботани ке</w>
борь бе</w>
бори сов</w>
бо родинов</w>
бо м
ближай шие</w>
благодар ю</w>
благодар ственные</w>
бла го</w>
би тва</w>
би лет</w>
би и</w>
беспла тное</w>
беспла тно</w>
бер т</w>
бело ру
бело го</w>
бела русь</w>
бакалавриа т</w>
ба та
б рази
аэро космическая</w>
астрономи я</w>
архитек туры</w>
архи вы</w>
ар ме
ана логов</w>
ан сам
алю ми
альга шев</w>
алексе я</w>
актуаль ной</w>
адап тирова
агре га
авиа строение</w>
абитуриен тами</w>
абили мпикс</w>
а с</w>
а зии</w>
ysi cs</w>
y о
y an
yan de
yande x</w>
wor king</w>
we b</w>
sta r
scif inde
scifinde r</w>
s h</w>
r i</w>
ph ysics</w>
on l
l а</w>
l u
in f
g a
ce s
ca s</w>
c o</w>
_ ap
H о
? ".</w>
9 8</w>
8 8</w>
8 3</w>
7 8</w>
7 4</w>
540 1</w>
5 4
5 30
40 8</w>
3 6
24050 2d</w>
22 в</w>
20 35</w>
20 03</w>
2 9
1 10</w>
! ".</w>
ё м
ё л
я чей
я по
я ет</w>
ющи мися</w>
юриспруден ция</w>
юно шей</w>
ю р</w>
ю к</w>
эффектив ной</w>
этни ческий</w>
эта ж</w>
эстафе те</w>
энерги ей</w>
элемен тар
электро нном</w>
эксперименталь ных</w>
экспер там</w>
экономи ческая</w>
экономи ке</w>
эко логического</w>
эдуар д</w>
эвели на</w>
э ссе</w>
э ль
э вм</w>
э ваку
эваку и
ь ян
щен ный</w>
шу м</w>
шта мпо
шо в</w>
широ ком</w>
ша ги</w>
ш мо
чу ю</w>
чте ниях</w>
чрезвычай ный</w>
чис лу</w>
чи вания</w>
четы р
чен ные</w>
челове ке</w>
че стве</w>
части чно</w>
ча я</w>
ча ются</w>
ча ще</w>
ча стую</w>
ч ок</w>
циолко вского</w>
цент ру</w>
це льной</w>
цве тов</w>
ца й</w>
ц ы
ц скб</w>
ц зя
худо ж
хоте ла</w>
хо тели</w>
хо м</w>
хо ждения</w>
хакато н</w>
ха ри
х та
фина льное</w>
физи ческие</w>
фи ла
фи л</w>
фи л
фе никс</w>
фаль кова</w>
факти чески</w>
фак т</w>
фабри ка</w>
ф лю
ф га
учи лся</w>
установ кой</w>
успеш ных</w>
успе ху</w>
уров нем</w>
управлен ческих</w>
управле нию</w>
универси ет
универи стета</w>
улуч шен
уин верситета</w>
уз б
узб ек
удо вле
у тся</w>
у строен</w>
у держи
у ве
у б
тё п
тур ных</w>
ту ден
ту да</w>
тс и</w>
трудо у
тру ди
треть ем</w>
треть ей</w>
требу ют</w>
требова ниям</w>
транспорти ров
точ ного</w>
торго в
тольяттин ский</w>
то н</w>
то ки</w>
то вые</w>
тле ь
тифика ции</w>
тиму ра</w>
тив ы</w>
тив ным</w>
ти ческого</w>
ти ку</w>
ти ви
технологи ческому</w>
технологи ческим</w>
техни ческому</w>
техни ческими</w>
теори ю</w>
тенден ции</w>
темати ческой</w>
теле фон
те те</w>
те сно</w>
твор ческого</w>
твор ки
танцева льный</w>
там бо
та рии</w>
т ю</w>
сызран и</w>
счита ют</w>
суще ствуют</w>
су з
суз с</w>
студен ту</w>
сту пле
строи тельного</w>
строе нием</w>
стре мя
стратеги ю</w>
стратеги ческой</w>
стран у</w>
стра ш
сто ли
стипен дий</w>
сте н</w>
ствова ло</w>
стар том</w>
став ки</w>
ста дии</w>
ст эмо
ст не
ст ки</w>
ссо трудни
сред ствами</w>
сред не
сре дних</w>
спу о</w>
справля ться</w>
справи лись</w>
способ ы</w>
способ ствуют</w>
способ ностей</w>
спортив но</w>
спор ти
спике рами</w>
спик еры</w>
специаль но</w>
спектра льных</w>
спек тра</w>
спа сения</w>
сотрудниче ству</w>
сосуди стой</w>
состоя ний</w>
сообще ству</w>
солне чных</w>
сози да
современ ную</w>
совет ской</w>
совет ник</w>
совершенствова нию</w>
совершен ствование</w>
собира ть</w>
со со
со проти
со мне
со держи
со вали</w>
сним ки</w>
смыш ля
служ бу</w>
слу жения</w>
слож ной</w>
слож нее</w>
след ствие</w>
ск лю
систе мо
систе мами</w>
симво л</w>
сило вых</w>
серебря ными</w>
серд це</w>
серви сы</w>
сер ье
сен ко</w>
семина ры</w>
семи оти
север ного</w>
се т</w>
се ссий</w>
се р</w>
се ний</w>
связа нности</w>
связа н</w>
сарки с</w>
санд р</w>
самоле ты</w>
самоле та</w>
само лет</w>
сами х</w>
самг ту</w>
самар ксого</w>
са мо</w>
с юр
с хо
с фа
с ный</w>
с ной</w>
с нима
с нг</w>
с меж
с вен
с l
с c
ру ками</w>
ру е
ру ди
рома нов</w>
роди лся</w>
ро ссотрудни
ро зен
ро ек
рн ф</w>
ри ю</w>
ри сков</w>
ри ск</w>
рен т
рейтин ге</w>
режи мов</w>
режи ма</w>
регуля ции</w>
региональ ным</w>
реаль ности</w>
реализовы вать</w>
ре чи</w>
ре н</w>
ре мон
ре кру
ре ке</w>
ре к</w>
ре к
рассказы вают</w>
рассказы вать</w>
распозна вания</w>
рас чет</w>
рас положение</w>
рас полага
раке тные</w>
рай онов</w>
разработ ками</w>
размер ы</w>
разме щена</w>
раз ры
раз решения</w>
раз го
раз вер
радиолока ционной</w>
работ ку</w>
ра ство
р ский</w>
р ные</w>
р ная</w>
р ки</w>
р га
пье де
пу тин</w>
пу сты
пу н
психологи ческое</w>
пси хея</w>
проя вили</w>
прошед шие</w>
прош лое</w>
профсоюз ного</w>
профсою зов</w>
профи ли</w>
профессо ров</w>
профессиональ но</w>
прототи пов</w>
противо стоя
противо действия</w>
простран ств</w>
просветитель ский</w>
проку ра
производ ственный</w>
производ ств</w>
произ ве
проек тных</w>
продук цию</w>
продолжи тельность</w>
продол жением</w>
программ но</w>
проводи ться</w>
про ще</w>
про ща
про двигать</w>
про да
прия тные</w>
прия тий</w>
прия тие</w>
присут ствовали</w>
приорите тов</w>
принци пов</w>
прине сли</w>
приме ров</w>
прика зом</w>
приеха л</w>
приглашен ы</w>
прибо ры</w>
при ступи
при кре
при зов</w>
премьер у</w>
преимуще ство</w>
предше ствен
предусмотрен о</w>
предоста влены</w>
предназна чена</w>
предлага ют</w>
пре под
пре де
пре бы
празд нования</w>
поче тные</w>
пото м
поступи л</w>
поступа ет</w>
посред ством</w>
посвя тил</w>
порта ле</w>
популяр ный</w>
попро бу
поня ли</w>
пом ню</w>
поля ри
получи лось</w>
поли ны</w>
поздра вления</w>
подтвержда ют</w>
поддерж кой</w>
подготови ться</w>
подготов лены</w>
подве л</w>
пода но</w>
под обра
под ер
повы ша
победи ла</w>
побе д
по станов
по пере
по ек
по б
пло дис
пленар ном</w>
пла сти
пла ка
петербург ского</w>
пес ня</w>
переда ча</w>
пере хода</w>
пере подготовке</w>
пере ли
перели вания</w>
пере довая</w>
первен ство</w>
пер у</w>
пе сен</w>
партне рам</w>
пародонти та</w>
пара тов</w>
пар у</w>
памур зина</w>
павло вна</w>
павло вич</w>
п се
оцени л</w>
оцен ку</w>
отправи ть</w>
ото бра
относи тся</w>
отно ся
отме чено</w>
отме чен</w>
откры том</w>
откры тки</w>
отзы в</w>
отве тить</w>
от ры
от работа
от печат
от боре</w>
особен ностей</w>
основ ное</w>
осваива ют</w>
ос нова</w>
ориентирова ться</w>
ориенти рованных</w>
организа циях</w>
органи ческой</w>
орга н
орби т</w>
опреде лё
опере жа
опера ций</w>
опас ности</w>
оп ис
онто логии</w>
он й</w>
око ло
оказы вать</w>
ок си
оздорови тельные</w>
объя влены</w>
объя влен</w>
обще командном</w>
обсу ждены</w>
обраща ясь</w>
обрати ться</w>
обла ст</w>
оби та
обеспе чат</w>
об щим</w>
об щая</w>
об ща
об основа
об мену</w>
об мени
об ал
о су
о став
о ров</w>
о зер
о дис
одис сея</w>
о го
о гда</w>
о гар
ня ли</w>
ну три</w>
ну ля</w>
ноя бре</w>
нова ний</w>
нов о</w>
нов ны</w>
но чи</w>
но г</w>
но вича</w>
никола евич</w>
нико но
ни ок
несомнен но</w>
не творки
не просто</w>
не пре
не от
не измен
не возмож
нача льно</w>
нача лу</w>
нача лось</w>
националь ным</w>
нац проекта</w>
науко ем
насчи тыва
настав ни
направле нием</w>
написа ть</w>
нано инженерии</w>
нала дить</w>
назы вают</w>
назна чается</w>
награ дой</w>
нагля дно</w>
на сла
на пут
на прав
на полни
на ия</w>
на дёж
на гру
на всегда</w>
н ью
н те
мульти дисциплинар
моро зовой</w>
мон та
молодёж ного</w>
молеку ляр
молеку лы</w>
моз г</w>
мо рина</w>
мо нии</w>
мо мен
мо им</w>
мо ги
множе ства</w>
много функциональ
михайло вна</w>
миними зировать</w>
мина цией</w>
ми сур
ми ром</w>
ми нима
ми ло
меч ту</w>
меч те</w>
механиз мов</w>
мест ных</w>
мер ных</w>
менедж мент</w>
между н
межвузо вский</w>
ме тся</w>
ме стах</w>
ме ль
ме ло
ме кси
ме га
мг новен
материа лами</w>
матве ев</w>
масштаб ных</w>
масштаб ный</w>
масшта ба</w>
мастер ства</w>
маршру ты</w>
маршру тов</w>
магнито пла
магистра туре</w>
ма сси
ма и</w>
м р
м но</w>
ль ник</w>
ль е
ль да</w>
лу ны</w>
ло па
ло вой</w>
литера тура</w>
ли дия</w>
ли га</w>
лет нему</w>
лек торов</w>
лебе дева</w>
ле чения</w>
лан д
лабирин т</w>
ла ри
ла к
ла до
л к
л га
культур ная</w>
куль туре</w>
куль минацией</w>
куйбышев ском</w>
кузнецо ва</w>
ку прия
ксе нии</w>
круго зор</w>
кре по
кост ях</w>
корре спон
королё а</w>
кор сун</w>
контен т</w>
консульта ции</w>
конструкто ров</w>
консорци ума</w>
комфор тной</w>
компью тер</w>
комплекту ющих</w>
компа ниями</w>
комп ен
коммен тарий</w>
коми н</w>
команд ный</w>
коман дах</w>
колле гам</w>
коллабо ра
коз лов</w>
ко чет
ко си
ко операции</w>
ко вский</w>
клу бе</w>
класси ческий</w>
кита е</w>
ки стан</w>
ки не
ке ль
квар ти
ква нт</w>
карьер а</w>
кана л</w>
кала шникова</w>
ка сса
к х</w>
ито гом</w>
истори ческий</w>
использова ться</w>
исполни лось</w>
искус ство
искус ственному</w>
искус ств</w>
ис ку
ионо сферы</w>
ион ных</w>
инфраструк турой</w>
интенси ве</w>
инстру ментов</w>
институ ту</w>
инициа тором</w>
индустри й</w>
инвести ционной</w>
ин формирова
ин струк
ин ской</w>
име ющие</w>
ильи ч</w>
изуче нии</w>
измени ть</w>
из мери
из вод
игра ют</w>
игра ет</w>
игол кина</w>
игна тьев</w>
и рины</w>
и п
и онов</w>
и ка</w>
и верситета</w>
зы вают</w>
зова я</w>
знаком ые</w>
зна ниям</w>
земледели я</w>
зе ле
зачё те</w>
зар пла
запу ске</w>
запро сы</w>
запро с</w>
запове дни
зако нов</w>
зака зу</w>
заинтересова нных</w>
заез д</w>
заверши тся</w>
заверши л</w>
завер шения</w>
за ха
за пас
за каза
за думы
за данных</w>
з но</w>
жизнен ный</w>
живу т</w>
жи вое</w>
жи вет</w>
жер тво
жа ли</w>
жа лдыбина</w>
ж не
ж д
ж анна</w>
ен ка</w>
еди ную</w>
евген ьевна</w>
е ц
е обходи
е мо
е лен
е й
е ж</w>
е вичу</w>
дыха ние</w>
ду хе</w>
дре в
доступе н</w>
достиже ниями</w>
дости гать</w>
дополни тельную</w>
донор стве</w>
доне ц
долго сро
докумен та</w>
доклад чик</w>
довер ия</w>
до т
до су
до ж
до говори
до воль
дни ки</w>
дистанцион но</w>
диску ссию</w>
диплома тия</w>
диа на</w>
ди ла</w>
десан т</w>
держ ке</w>
дер е</w>
день ги</w>
ден а</w>
демонстри рует</w>
девя ть</w>
де тям</w>
де ние</w>
де ев</w>
дво р
двигателестрои тельной</w>
двига тельной</w>
дани ла</w>
да вы
да вид</w>
д ю
д ра</w>
грип па</w>
гри цай</w>
гри сяк</w>
гри д</w>
грани цы</w>
гражда нин</w>
граду сов</w>
гра да</w>
государствен ные</w>
горо дах</w>
говори л</w>
го сти
го ди
го вого</w>
гла з</w>
географи ческий</w>
геннад ьевич</w>
генера тивного</w>
гене рации</w>
гене рато
газотурбин ной</w>
газ пром</w>
га ри
га ле
г бу
вьетнам ских</w>
вычис лений</w>
высо те</w>
выпуск ница</w>
выбро сов</w>
вы зова
вши мся</w>
встрети лся</w>
времен ных</w>
времен а</w>
вре мен</w>
вось ми</w>
востребова нных</w>
вост ор
воспа ления</w>
вопро сом</w>
вопро сах</w>
волонтё ров</w>
вол ю</w>
вол ге</w>
возраст ной</w>
возра ста</w>
возника ют</w>
возника ет</w>
возник новения</w>
возгла вляет</w>
води ть</w>
вод ят</w>
вовле чение</w>
во спла
во о
вне за
вля ют</w>
влен ные</w>
владими ром</w>
влади слава</w>
вла ды
виртуаль ные</w>
визу ализации</w>
видео роли
ви о
ви да</w>
взаимо понимания</w>
вз ро
вз лё
верну ться</w>
вер си
вер им</w>
вер жен
вен ства</w>
ве н</w>
ве ктор</w>
ве к</w>
вдохно ви
вдо х
вариан т</w>
вален ти
вакци на
вади ма</w>
ва сь
ва ль
в шее</w>
в ской</w>
в р</w>
в ности</w>
в н
в ло
бюдже тные</w>
бы строго</w>
буде те</w>
бронзо вый</w>
бри ль
боя ться</w>
борисо вич</w>
бори са</w>
боль шей</w>
бой цы</w>
бога т
бо ле</w>
бо зона</w>
бло ков</w>
био химии</w>
беспилот ник</w>
беспило тным</w>
белору ссии</w>
безопас ной</w>
бачин ская</w>
базо й</w>
ба ла</w>
б ре
б лю
б ло</w>
аэро космический</w>
ауди тори
аспиран та</w>
аспек там</w>
арт пром</w>
арен а</w>
аргу менты</w>
апре ле</w>
амба ссадо
аль ным</w>
аль ный</w>
аль берт</w>
александ ром</w>
александ ровича</w>
алгорит мов</w>
акто вый</w>
акселерато ра</w>
акку муля
ака де
ак тив</w>
аз ви
адап ти
аграр ный</w>
автова з</w>
авиацион ная</w>
абитуриен т</w>
а нии</w>
а ле
а ки
а ж
а д</w>
z о
vie w</w>
v a
universi ty</w>
ti mes</w>
te r</w>
stud ies</w>
sam _
sam_ he
s y
s _</w>
ru s
r in
pr ie
p i
onl ine</w>
o d
ne er
n u
n on</w>
lib ri</w>
k o
journa l</w>
htt p</w>
gi neer
f о
er go</w>
e x</w>
e d
d ra
ct f</w>
co libri</w>
bac k</w>
ai f</w>
a st
_p ad
_ap d_</w>
Y е
S а
? ",</w>
8 9
8 7</w>
7 times</w>
5 6</w>
5 2</w>
5 201</w>
4 50</w>
36 ст</w>
202 8</w>
199 0</w>
19 80</w>
15 6</w>
10 1</w>
10 0
1 80</w>
. ),</w>
, "</w>
" #</w>
яро сла
ян ва
ядер ной</w>
я ют</w>
я ли</w>
я ки
юще му</w>
юнито вый</w>
юж ный</w>
юж ной</w>
ю шкина</w>
ю ли
ю зеля
эффектив ную</w>
эта жа</w>
эпо хи</w>
экономи стов</w>
э стра
э от</w>
э ги
эги дой</w>
э б</w>
э а</w>
ье ров</w>
ь тся</w>
ь ем</w>
ы д
ъ ю
щин е</w>
щи к</w>
ще ний</w>
ща ем</w>
щ у</w>
шко лах</w>
широ кому</w>
широ кой</w>
широ кого</w>
ши лимов</w>
шед ших</w>
ша ф
ша ге</w>
ш тей
штей н</w>
ш ку</w>
чё н</w>
чув стви
числен ности</w>
чи р
чи вать</w>
четы рова</w>
чен ности</w>
част от
ча сы</w>
ча сто
ча ем</w>
ч кова</w>
цифро вом</w>
цион ному</w>
цент ри
цен ным</w>
цен ност
цело ст
целе у
ца ии</w>
ц я</w>
ц не
ц ких</w>
ц ем</w>
хоро шее</w>
холди нга</w>
хо ре
хва тает</w>
харак тера</w>
хакато не</w>
ха са
ха о
ха нова</w>
х ан
фут залу</w>
функ циона
фунда мент</w>
фран ция</w>
фото нной</w>
форму лы</w>
фор мой</w>
фон ды</w>
фо нов</w>
финансо вую</w>
финали стам</w>
фина льный</w>
фило л</w>
физиотерапев тические</w>
физи ческая</w>
февра ле</w>
фе но
фаэто н</w>
фа ктор</w>
фа зо
ф юзеля
ф у
учё ным</w>
учё ный</w>
учеб ными</w>
учеб ная</w>
уче та</w>
участни ца</w>
уф нс</w>
успеш ные</w>
успеш ное</w>
услы ша
уров нях</w>
унивр ситета</w>
уме ется</w>
уль т
ульт раз
удосто ен</w>
уделя ется</w>
угол ков</w>
углуби ть</w>
увеличи лось</w>
ува жение</w>
у фи
у н</w>
у к</w>
у держа
у гло
у ви
у бор
у би
тяже ло</w>
тур ный</w>
ту бер
тубер ку
тс вен
трудо вых</w>
труд ностей</w>
тро е</w>
тренин гов</w>
трени нга</w>
трен дах</w>
тре ков</w>
трансля ции</w>
траек торий</w>
тради цией</w>
точ ное</w>
тон костях</w>
то ка</w>
тка ни</w>
тив ными</w>
тив ную</w>
тив ном</w>
ти ческой</w>
ти ческий</w>
ти кой</w>
технологи ческую</w>
терри торию</w>
терми ны</w>
терагерце вого</w>
теп лые</w>
темпера тур</w>
тель ский</w>
тель н
телефон у</w>
теле мост</w>
теле метри
теле гра
телегра м</w>
те ьл
те ры</w>
те ро
те ор
те ми</w>
те лом</w>
те и</w>
те а</w>
твердо сти</w>
твердо мера</w>
татар стан</w>
таль де
тальде ги
та ют</w>
та ты</w>
та ки</w>
та джи
та ври
т ча
т сь</w>
т во</w>
ся о
сяо жу
сю да</w>
сь ев</w>
съез д</w>
сцена рии</w>
сцен у</w>
сформирова н</w>
суще ствующих</w>
супру н</w>
судеб ного</w>
суверен ной</w>
су ть</w>
су ици
су д</w>
сты ке</w>
студен ческую</w>
студен ческими</w>
сту дне
струк ту
строи тельных</w>
стреми ться</w>
стре ссо
страхо вания</w>
стратеги я</w>
стратеги ческие</w>
стр ю
сто ль</w>
сто лы
столы пина</w>
сто ле</w>
стихотво рение</w>
сти хи</w>
стен д</w>
стати стика</w>
стар ше</w>
стано вления</w>
стано влении</w>
стандар тной</w>
стан цию</w>
стан ций</w>
стажи ровок</w>
ста ри
ст ников</w>
ссо р</w>
ссиональ ной</w>
спут никовых</w>
способ ствующих</w>
способ на</w>
спор т
спис ке</w>
специ ал
специ а
спектра льные</w>
спа тен
сп ы
сп к</w>
сою з
социаль ный</w>
сохра ни
состяза ний</w>
составля ют</w>
сосредото чи
сообщи ла</w>
сойфер а</w>
соиска ние</w>
созда ст</w>
созда но</w>
созда нные</w>
созда вае
содержа ния</w>
содержа ние</w>
согла сова
совмест ное</w>
совмест ного</w>
собра ние</w>
собра ли</w>
собра вшихся</w>
со чи
со с
со знания</w>
смышля ева</w>
смыс л</w>
смар т
сма ар
слож ными</w>
сло вес
скобе лева</w>
ско г
ска н</w>
синте за</w>
симво лом</w>
сик й</w>
сигна лов</w>
си на</w>
си на
си льных</w>
си льные</w>
си лами</w>
си ан
серье зная</w>
серебря ный</w>
семиоти ческие</w>
семина ров</w>
селек тивного</w>
се мен
свобо ды</w>
свобо ду</w>
свиде тельство</w>
сваро г</w>
сало нных</w>
сай тах</w>
са л
са арского</w>
с следова
с ных</w>
с i
с b
рус ским</w>
рус лан</w>
руководи телями</w>
ру ющих</w>
ру ем</w>
рост у</w>
россий скую</w>
россий ское</w>
россий скими</w>
россий ск
росс й
росс и</w>
рома шка</w>
робото технике</w>
роботизирован ной</w>
ро я
ро спатен
ро и
ро вичем</w>
рин бур
ри ну</w>
ри на
ри ей</w>
ри ев</w>
реши л</w>
рецен зиру
ресур сам</w>
рекру тинга</w>
рекла мы</w>
резер в</w>
реда ктора</w>
ред ко
редко земе
рев на</w>
реаль ными</w>
реаль ном</w>
реаль ной</w>
реализова ны</w>
ре м</w>
ре кти
ре и</w>
ре га
рассказы вал</w>
расска з</w>
распре деле
расписа ние</w>
раке тного</w>
разработа нные</w>
разработ кам</w>
разраба тывают</w>
разнообраз ные</w>
различ ного</w>
разли чи
разви ва
раз умеется</w>
раз би
раду га</w>
ради освя
рав ных</w>
работ ной</w>
ра ста
ра ни
ра ми
р ю
р ный</w>
р на
пя того</w>
пя та
пыта ться</w>
публи ку
пу шкина</w>
пу ско
пу л</w>
пры жок</w>
профориента ционная</w>
протоко ла</w>
прокомментирова ла</w>
производи телей</w>
проекти рованию</w>
проек тно</w>
продолжи т</w>
продемонстри руют</w>
продви ну
прод ю
программ ное</w>
провай де
пробле мами</w>
про явля
про работки</w>
про ми
про м
про гра
про бу
приходи те</w>
приуро чено</w>
присоедини ться</w>
принима ла</w>
применя ется</w>
примене нии</w>
призе рам</w>
призе р</w>
призва на</w>
призва н</w>
пригла шё
пригла сил</w>
привлека ть</w>
приве ло</w>
при шёл</w>
при ходят</w>
при сла
при зы
при знания</w>
при зем
при ви
при вести</w>
при вержен
претен дова
препода в
прем ьер</w>
презенто вали</w>
предполага ется</w>
предоставля ется</w>
предме тных</w>
предложен ы</w>
пре дан
практи ческим</w>
практи ков</w>
право вой</w>
прави тельстве</w>
прави лами</w>
пр де
появи лся</w>
поче тными</w>
поч ты</w>
поч вы</w>
поч вен
поч ве</w>
послед нее</w>
порта л</w>
попа сть</w>
пооб щались</w>
помо гла</w>
полно цен
полити ческие</w>
полити ку</w>
полиго н</w>
поле ты</w>
поле зная</w>
поис ке</w>
познава тельные</w>
поздра вил</w>
подчеркну ть</w>
подчеркну в</w>
подтвер ждение</w>
подтвер дил</w>
подраз деления</w>
подписа л</w>
поддержи ва
подготовлен ными</w>
пода че</w>
пода вать</w>
под ключа
повы шению</w>
повто ри
поволж ье</w>
поверх ность</w>
по чув
по х
по на
по ки
по к
по знания</w>
по гиб
по вер
платфор мой</w>
платфор м</w>
плато нов</w>
плаз мен
пла нами</w>
пла н
пла ванию</w>
пиц ца</w>
пись мен
пи ще
пи ро
пи ме
пиме нова</w>
пи ка
пере ход
пере вод</w>
пер м
педагоги ческой</w>
педаго ги</w>
педаго га</w>
пе т
пе д
пауэрлиф тингу</w>
патен тов</w>
пара д</w>
пар тии</w>
пар ке</w>
пане лей</w>
па ш
па то
па ри
па р</w>
па н</w>
па м</w>
па ль
па вельев</w>
п ё
п п</w>
п к</w>
очере дное</w>
оч ков</w>
охватыва ющих</w>
официаль ной</w>
офис а</w>
офи с</w>
отноше нии</w>
отлич ник</w>
откли к</w>
отзы вы</w>
отде лением</w>
отде ле</w>
отвеча я</w>
отборо чном</w>
от сле
от се
от м
оста ются</w>
особы х</w>
особен ностью</w>
основа м</w>
основ ным</w>
освое нии</w>
ос нов</w>
ос мысле
оро лёва</w>
орке стра</w>
организова л</w>
органи зовы
органи зма</w>
орг комитет</w>
ор ы</w>
опти ческой</w>
опти ка</w>
определи ться</w>
опре деление</w>
оп тике</w>
он у</w>
он ной</w>
олим пи
олего вич</w>
октябр ь
окончи ла</w>
ознакоми лись</w>
оздорови тельное</w>
ожида ния</w>
одно имен
оди но
одержа ла</w>
од об
огром ную</w>
ограни ченными</w>
ограни чения</w>
обы чных</w>
объясни ли</w>
объя с
объя вление</w>
объединен ной</w>
обще образовательных</w>
обсу ждению</w>
обслужи вания</w>
обно вление</w>
обнару жить</w>
облада телями</w>
оба я
об щие</w>
об мен
об зор</w>
о сть</w>
о стро
о опт</w>
о ги
ня ка</w>
нор м</w>
номина циям</w>
новогод ние</w>
нови чков</w>
нови з
нов е</w>
нов города</w>
но ог</w>
никоно ров</w>
ни я
ни ти</w>
ни ка
ни будь</w>
нейросете вой</w>
не н</w>
не достаточно</w>
не большое</w>
не бес
находи ться</w>
науч ному</w>
насыщен ной</w>
настоя щие</w>
насто льному</w>
насе ком
нару шение</w>
народ ной</w>
наноспут нико
нано технологий</w>
нала жи
назем ных</w>
назем ного</w>
наз вать</w>
награ ждению</w>
навига ционных</w>
на шему</w>
на много</w>
на магни
на бо
н ты</w>
н сти</w>
н ская</w>
н ному</w>
н но
н во
н j
н X
н C
мы вместе</w>
музыка льные</w>
музе и</w>
му дро
мры кина</w>
моро зов</w>
моро з</w>
мор до
моло чной</w>
мол до
модерни зирован
модера тором</w>
мо ха
мо ра
мо ментов</w>
мо ди
многи ми</w>
мног обор
млад ших</w>
михайло вича</w>
мисур кин</w>
мир эа</w>
ми ссию</w>
ми а
метал ла</w>
мероприя тием</w>
мен и</w>
мемо ри
международ ному</w>
ме рами</w>
ме д</w>
мати ческих</w>
материа лах</w>
материа лам</w>
масштаб ной</w>
мар те</w>
мар а</w>
манту ленко</w>
малы ми</w>
мало эми
максима льное</w>
магист ров</w>
мав лю
ма три
ма ма</w>
ма ке
м с</w>
м м
льта ты</w>
ль го
лу не</w>
ложи ли</w>
ложи л</w>
логи ческой</w>
логи нова</w>
ло вым</w>
личност ного</w>
лич ность</w>
лиде ром</w>
ли ще
лет та</w>
лет ней</w>
лег ких</w>
ле п
ле до
ле вита
лауреа том</w>
лак тальдеги
ла м
ла гу
л ла</w>
л ку</w>
курча товский</w>
кур ской</w>
куприя нов</w>
куйбыше вс
кры льев</w>
кры ль
кра й</w>
которо му</w>
корре кти
корпора ция</w>
корпора тивной</w>
коро ле
кораб ль</w>
кор п</w>
конфе ре
контей не
контак тов</w>
консу ль
констан ти
компьютер ных</w>
компози ционных</w>
комплекс ной</w>
коммен тирует</w>
комите том</w>
команди р</w>
команд ных</w>
команд ного</w>
ком бина
ком а</w>
коллекти вом</w>
колле гии</w>
коллай дере</w>
ко со
ко ра
ко ву</w>
ко вского</w>
кни ге</w>
ключе вая</w>
кирил ла</w>
кей сы</w>
кей сов</w>
кей са</w>
квалифика ционных</w>
ква н
каче ственно</w>
карби да</w>
кан д
кампу се</w>
кампу с</w>
кадро вой</w>
каби нета</w>
ка п
к ве
к J
й ы</w>
источ ником</w>
источ ники</w>
истори ческие</w>
исто ков</w>
исследователь ская</w>
иссле до
испы тыва
испы тательной</w>
использу ется</w>
использова ны</w>
испол нения</w>
ис ключе
инф рак
интеллектуаль ного</w>
интеллек ту</w>
интегра ция</w>
инструмен тами</w>
иностран ного</w>
инициатив у</w>
инжинирин г</w>
инвали д
ин спек
ин но
илю хина</w>
измене ние</w>
изго тавли
извест ные</w>
из нутри</w>
из бран</w>
иден тификации</w>
иг ре</w>
ива нов</w>
и ро
и ем</w>
и вали</w>
зу бри
зова тельных</w>
зо о
значи тельное</w>
знаком ств</w>
зи ю</w>
зи с</w>
зер ка
зем ля</w>
зда ний</w>
зда нии</w>
зда ние</w>
зв учит</w>
заседа ний</w>
занима юсь</w>
закан чи
заказчи ка</w>
зай мется</w>
заинтересова ны</w>
заверши лись</w>
заболе вание</w>
за частую</w>
за ций</w>
за работной</w>
за печат
за одно</w>
за ба
з ор
з ни</w>
з ин
журнали ст</w>
жизнен ной</w>
жиз нью</w>
жид кост
жи е</w>
жи вых</w>
жи вую</w>
жесто вое</w>
жен ер
жела ния</w>
же ства</w>
жден ных</w>
ж ки</w>
ж ды</w>
еха ть</w>
еро фе
ереми цкая</w>
ен но</w>
екате ринбур
ек е</w>
ежегод ное</w>
ежегод ного</w>
едино гла
единогла сно</w>
еди ни
е ского</w>
е ров</w>
е лены</w>
дума ть</w>
дружи нина</w>
друго го</w>
дра вли
дости жении</w>
доро шин</w>
допуска ются</w>
донор ство</w>
доно ром</w>
дон ба
договори лись</w>
дова л</w>
доб рых</w>
доб рые</w>
до ме</w>
до казы
до к
до до</w>
дмитри ю</w>
директо ру</w>
дире кции</w>
дипло мом</w>
динами ке</w>
диктан те</w>
дизай на</w>
ди мир</w>
дж ет</w>
дея телей</w>
дет ском</w>
дет ских</w>
десяти ле
держа ться</w>
дели ться</w>
делега цию</w>
де ть</w>
де тся</w>
де те
де н</w>
де гра
двой ник</w>
двига тельную</w>
дви жений</w>
дан ную</w>
дальней шему</w>
да нов</w>
д т</w>
д ро</w>
д ка</w>
д u
губерна тору</w>
губер нского</w>
губер нский</w>
груп пами</w>
гри гори
графи ка</w>
графи к</w>
гранто вых</w>
готови ться</w>
готов ность</w>
горя чей</w>
гор лище
годов щине</w>
год но</w>
го сть</w>
го лу
глубо ко</w>
гиперспектро метры</w>
ги тар
ги ро
герма нии</w>
гер бар
гео графии</w>
ге о</w>
гвар дей
гаври лов</w>
вычисли теля</w>
выступле нием</w>
выс шая</w>
вырос ла</w>
выраз и
выража ет</w>
выра жения</w>
выпуск ника</w>
выполня ли</w>
выполня ет</w>
выбра ла</w>
вы страивать</w>
вы р
вы полнить</w>
вы па
вы вести</w>
вы бор
ву з
встрети лись</w>
всероссий скую</w>
ври о</w>
востребова нность</w>
востребова на</w>
восто чной</w>
вороб ьев</w>
воплоща ть</w>
волонтё ры</w>
волоки тина</w>
волей болу</w>
вол го</w>
вол га
возраст ных</w>
возмож но
воздухо плавания</w>
возвра щения</w>
воз духе</w>
воз действие</w>
воен ных</w>
во сть</w>
во семь</w>
внедря ть</w>
внедре нии</w>
вля ется</w>
влен ных</w>
вле ниями</w>
вла сть</w>
включе ние</w>
вих ре
вита лия</w>
вио летта</w>
визи том</w>
виде ос
ви тся</w>
ви ногра
ви дах</w>
взрос лых</w>
вече ром</w>
вез де</w>
ведом ств</w>
веде нию</w>
ве бина
вдохновля ть</w>
в т
в ско
в пло
в ную</w>
в ная</w>
в ме
в веде
буд учи</w>
бронзо вым</w>
брази лии</w>
бр ь</w>
боро ться</w>
борге ст</w>
бо ты</w>
бо та</w>
бо ре
бо ну
бо вали</w>
бо ва</w>
бло ка</w>
благотвори тельный</w>
био логи</w>
бесцен ный</w>
беспла тный</w>
беско не
беско н
бел ка</w>
бе н</w>
бан ком</w>
балан с</w>
бал ло
ба я</w>
ба ра
ба на
б я
б л
аэро пор
аэро динамика</w>
аэро динами
аэ родро
ау ки</w>
арти ллер
ар сений</w>
аппара тами</w>
антро по
анто нина</w>
антибио тиков</w>
ансам б
анонси ровала</w>
анке ту</w>
андре ем</w>
англий скому</w>
анали зу</w>
ана логи</w>
ан ну
амери ка</w>
ам пли
актив ный</w>
актив ностей</w>
акселе рации</w>
академи ческой</w>
ак цию</w>
ак тер</w>
администра цией</w>
агент ство</w>
автоном ных</w>
автоматизирован ного</w>
авари й
а ш
а сла
а ри
а ра
а плодис
а з</w>
а бра
v e
u а
u n
tu m</w>
to r</w>
ti c</w>
t e</w>
ssi on</w>
sama ra
sam_he ar
sam_hear t</w>
s re
sre f</w>
s i</w>
s e</w>
ros sref</w>
ra ex</w>
r s</w>
prie m
ph o
p i</w>
p er
o p
mi ssion</w>
k e</w>
j е
inf o</w>
i on</w>
i l
e а</w>
e l
dra ma</w>
dire c
direc tum</w>
d о
cl ck</w>
ces se
c h</w>
b b</w>
_p d_</w>
_ os_</w>
P и</w>
9 6</w>
7 7</w>
6 6</w>
6 1</w>
5 50</w>
23 8
200 6</w>
20 6</w>
20 18</w>
2 7
196 7</w>
196 1</w>
194 4</w>
194 3</w>
19 70</w>
19 60</w>
10 6</w>
1 б</w>
1 1
0 10
.. .</w>
. "</w>
яро слава</w>
ярмар ке</w>
яр че</w>
яр кой</w>
янва ре</w>
ядер ного</w>
я ц</w>
я бло
юсу пова</w>
юбилей ный</w>
юбиле ем</w>
ю ные</w>
ю и</w>
эффектив ным</w>
эффектив ный</w>
эффе к
эт но
элемен тами</w>
электро нную</w>
эле ментом</w>
экспона тов</w>
экспози ция</w>
эксплуа та
эксперименталь ные</w>
экскур сий</w>
экрано плана</w>
экра не</w>
эко ном
экза мены</w>
эк склю
эксклю зи
эволю ции</w>
э руди
э м
э л</w>
ь тесь</w>
ь ных</w>
ь ев
ъем ле
ще ло
шу нова</w>
шко й</w>
широ ким</w>
ши п
ши ляев</w>
шен ных</w>
ше к
шан ь
шан ха
ша нь</w>
ш тор
ш най
шнай дер</w>
ш ке</w>
ш ке
ш ками</w>
чув ства</w>
чу пин</w>
чист ый</w>
чи вают</w>
че ством</w>
че ля
челя бин
част ного</w>
ча ла</w>
ч ья</w>
ч т
ч ны</w>
ч ному</w>
ч ников</w>
ч лена</w>
ци но
цент рами</w>
цени м</w>
цен ко</w>
целеу стрем
це в
цве ты</w>
цве т</w>
ца ри
ц ни
ц кой</w>
ц ар
хта мыш
хра ма</w>
хоче шь</w>
хоро шей</w>
хозяй ство</w>
хозяй ственной</w>
хо дом</w>
хими ческие</w>
ха на</w>
ха бло</w>
х ы
х ри
х ники</w>
х восто
фра г
форму ла</w>
форма ции</w>
форма тов</w>
фобо с</w>
фо ни
флю оро
фло та</w>
финансо во</w>
фин кель
финкель штейн</w>
филь мы</w>
филиа л</w>
фи р
фи и</w>
федераль ные</w>
фанта сти
фа к</w>
ф ру
ф рей
учё ными</w>
учё ба</w>
учи тывать</w>
учи тесь</w>
учи лось</w>
учеб у</w>
учеб а</w>
участни ку</w>
участ еи</w>
уч у
утвер жден
устойчиво сти</w>
устанавли вать</w>
успеш ный</w>
успе вае
услу г</w>
услови ям</w>
уско рения</w>
уро ки</w>
ура ла</w>
ура вне
упу стите</w>
унивесри тета</w>
университе ат</w>
универи тета</w>
ун верситета</w>
уме л</w>
ум ных</w>
ульянов ский</w>
ультраз ву
улы б
улуч шению</w>
улуч шение</w>
укре пи
удовле тво
уделя ет</w>
удели ли</w>
уда ча</w>
угле кисло
увлека тельной</w>
уверен ности</w>
у ю
у щер
у то
у потреб
у ко
у ач
ты ненко</w>
туристи ческой</w>
тур клуба</w>
тур бу
турбу лен
туберку ле
ту поле
трудо вому</w>
тру же
тру ды</w>
тро нов</w>
тро м</w>
три дца
треть я
трево жности</w>
тре мя</w>
тре м</w>
традицион ный</w>
традицион ное</w>
тради цию</w>
точ ных</w>
точ ках</w>
торгов ли</w>
то хтамыш
ти хо
ти ра
ти пи
ти п</w>
терпе нием</w>
теп лый</w>
тенни су</w>
темпера тура</w>
темати кой</w>
тель ны</w>
тель на</w>
теле коммуника
тек сто
теат ров</w>
те ть</w>
те т
те ний</w>
те зис
творче стве</w>
твор чески</w>
твор ческая</w>
твен ный</w>
татель ная</w>
тан шань
таль ный</w>
талан т</w>
тай ны</w>
таври да</w>
та ра
та на</w>
та кому</w>
т ти</w>
т ские</w>
т ская</w>
т нё
т ны</w>
т ников</w>
т d
сяожу й</w>
сь т</w>
сы воро
сыворо тки</w>
счё т</w>
сфа г
существу ющие</w>
сум ми
судь бе</w>
судь ба</w>
су ме
стэмо фест</w>
ступен и</w>
студе но
студено тв</w>
сту дн
струк турой</w>
строй ки</w>
строи ться</w>
строи тельство</w>
строен ы</w>
стрем ления</w>
стрель бе</w>
стре лка</w>
стре би
стратеги й</w>
сторо н</w>
столкну лись</w>
стиму лом</w>
сти ческой</w>
стере оз
стен де</w>
ству ющие</w>
стать я</w>
старшекласс ников</w>
старо сель
старосель ская</w>
стандар тных</w>
стандар т</w>
сталки ваются</w>
стажиров ке</w>
стаби льно</w>
ста рост</w>
ст ду
ст ва
сси ях</w>
сре дах</w>
спу стя</w>
справи ться</w>
способо м</w>
способ ные</w>
спосо бен</w>
спортив ном</w>
спор том</w>
спи ло
специаль ная</w>
спе чения</w>
спе лео
спе ле
сп ан
социаль ную</w>
сохраня ется</w>
сохра нении</w>
соф т</w>
соста вили</w>
соответству ющее</w>
соответ ствует</w>
соору жений</w>
сомне ний</w>
солн це</w>
соли дар
соко лова</w>
сок спк</w>
созда вали</w>
соеди нения</w>
согласова нию</w>
согла си
совмест ную</w>
совме сти
совет ском</w>
совершен ствовать</w>
совершен ствования</w>
сове то
сове те</w>
собы тиями</w>
собствен ными</w>
собствен ную</w>
собствен ностью</w>
собра ния</w>
собеседова ние</w>
соб ран
со тен</w>
со поста
со п</w>
со гре
со болез
соболез нования</w>
сним ков</w>
смысло тека</w>
смо жем</w>
смо гу</w>
смеж ных</w>
служи т</w>
служ б</w>
слу же
слу жа
слож ный</w>
слож ное</w>
сло ве</w>
слад кий</w>
сказа ли</w>
ска фан
ск уч
симпози ума</w>
сим пто
силь ное</w>
сигна л</w>
си льной</w>
серий ное</w>
сере дине</w>
серд цах</w>
сер во</w>
сенсо ры</w>
семё новна</w>
семест р</w>
сельхо зу
секре т</w>
се л
се зон
сда че</w>
связа нным</w>
свое образ
свое времен
сбор ка</w>
сарато ва</w>
сана тория</w>
самолё та</w>
само управления</w>
само му</w>
самарск й</w>
сай тов</w>
са р
са мыми</w>
с це
с форми
с серво</w>
с ным</w>
с ные</w>
с ная</w>
с ле</w>
с з
с ведений</w>
с y
с m
с Y
с T
с Q
ря са
ры бин
рф яц</w>
руковод я
руковод ства</w>
ру б</w>
россотрудни чества</w>
розы гры
роди лась</w>
род ном</w>
рован ным</w>
рован ную</w>
рован ное</w>
ров у</w>
робото технических</w>
роботизирован ных</w>
ро сии</w>
ро лёва</w>
ро д</w>
ри я
ри туа
реша ют</w>
рекомен ду
резу ль
ред ста
региона ми</w>
реги на</w>
реб енка</w>
реаль ный</w>
реализу емых</w>
реализова н</w>
реализова ли</w>
реа нима
ре ш
ре флек
ре пина</w>
ре нием</w>
ре креа
ре г
расширя ется</w>
расту т</w>
рассчи тываем</w>
рассматри вать</w>
рас ного</w>
рам ки</w>
разработа нных</w>
разработа л</w>
разработ чики</w>
разраба тывает</w>
разо вания</w>
разнообраз ных</w>
разнообраз ие</w>
размер а</w>
разви ваются</w>
раз рабо
раз р
раз ила</w>
раз деля
раз говор
раз га
радо стью</w>
радо сти</w>
радиолюби телей</w>
рабочи й</w>
работода тели</w>
работа ющая</w>
работа х</w>
работ ники</w>
рабо чую</w>
ра ун
ра и
ра ви
р я</w>
р со
р скую</w>
р ским</w>
пё тр</w>
пята ева</w>
путеше ствия</w>
пунк тов</w>
психологи ческим</w>
психологи ческие</w>
психоло га</w>
пря мой</w>
процес сах</w>
профсою зная</w>
профилакти ке</w>
профи лю</w>
прото нов</w>
прост ым</w>
просмо тр</w>
просветитель ских</w>
пропа ган
производ ственная</w>
произ ведения</w>
продолжа ют</w>
продолжа ется</w>
продол жить</w>
продемонстри рова
прогре сса</w>
провод я
провер ять</w>
провер ку</w>
прове дены</w>
про ц
про х
про ф</w>
про ез
про бовать</w>
про анализировать</w>
прия тных</w>
причин е</w>
приуро чена</w>
присут ствие</w>
прису жда
присоединя йтесь</w>
присоедини лись</w>
природ е</w>
приро ду</w>
приро дой</w>
приорите ты</w>
приорите тным</w>
приобре тают</w>
принци п</w>
прин те
прикре плен
привет ствуя</w>
при ходит</w>
при па
при бора</w>
преподава ние</w>
преодо ления</w>
прекрас но</w>
президи ума</w>
президен тской</w>
президен те</w>
преду пре
представи тельства</w>
предприя тиям</w>
предприниматель ству</w>
предпринима телей</w>
предоста влен
предложен ный</w>
предло жение</w>
пред при
практику м</w>
практи кой</w>
право порядка</w>
право охра
пр ва
поя сни
поя вления</w>
поч те</w>
потре би
пото ков</w>
пота пова</w>
поступи ли</w>
поступа ют</w>
поста ра
пособи я</w>
посо ль
посвящё нный</w>
поря до
поршне вой</w>
пори стого</w>
поощ рения</w>
поня тие</w>
понрави лось</w>
понима ю</w>
помога л</w>
помо рф
помо гло</w>
полё тами</w>
получа ется</w>
получа емых</w>
положи тельные</w>
полномо чный</w>
полез ных</w>
пол тора</w>
пол ную</w>
поко лен
показа тель</w>
познакоми лся</w>
пози ция</w>
поздра вили</w>
поздра ви
позволя ющих</w>
пожела ть</w>
пожалу й</w>
пожалу й
пожалуй ста</w>
поезд ки</w>
подчеркну ли</w>
подписа но</w>
подписа ние</w>
подписа ли</w>
подобра ть</w>
поддержи вают</w>
поддержа ния</w>
поддержа л</w>
пода рок</w>
под шип
под москов
под ключе
повто ря
поведен ческие</w>
поблагодари ть</w>
победи л</w>
по являются</w>
по стра
по ку
по каж
по жертво
по е
по делятся</w>
плодотвор ное</w>
плодороди я</w>
пло ды</w>
плат форма
планиру ю</w>
планета рий</w>
пла стика</w>
пла нов</w>
писа ть</w>
пиа ды</w>
пиа де</w>
перспектив ным</w>
переме ши
переда ли</w>
переда вать</w>
пере ходе</w>
пере йти</w>
пере во
пер си
пе ки
паци ентов</w>
паци ен
патриоти ческой</w>
патриоти ческое</w>
парус ного</w>
партнё ры</w>
партнё рами</w>
памя тных</w>
па па</w>
па ке
п т</w>
п но</w>
п ин
п д
п R
оч ки</w>
оцени вались</w>
охран я
охва тывают</w>
официаль ным</w>
офици альных</w>
отправи лся</w>
относя тся</w>
отмети в</w>
отлич ный</w>
откры тость</w>
откры тая</w>
откры вать</w>
откры ва
откли кну
отды х</w>
отвеча ют</w>
отвеча ть</w>
от чё
от прав
останови лся</w>
оста вили</w>
основа тель</w>
осен ние</w>
орке стр</w>
орга нах</w>
ор дена</w>
ор ви</w>
определен ные</w>
опре деле
опо ры</w>
операто ра</w>
операто р</w>
он ные</w>
он курса</w>
оку нуться</w>
ок лу
ожида ется</w>
од обе
ограни чивается</w>
ограни чений</w>
огар ёва</w>
объедини ть</w>
объ ем
общество знание</w>
обществен ная</w>
обучающи мися</w>
обследова ния</w>
обрати ть</w>
обрати лась</w>
образу ется</w>
обработ кой</w>
обра тная</w>
оборо не</w>
обо га
обменя лись</w>
обеспечи т</w>
обеспе чению</w>
обе их</w>
об щ
о ча
о це
о х
о пор
о ки
о зв
о га
о вые</w>
ня ют</w>
ня т</w>
ня м</w>
нью с</w>
ну ле
ну ждаются</w>
норма льно</w>
ново го
нови чем</w>
но чного</w>
но у</w>
но ти</w>
но с</w>
нй ы</w>
ниж него</w>
ни р</w>
нефте газо
нестандар тные</w>
неравнодуш ных</w>
неот ъемле
необходи мой</w>
ней ших</w>
не тики</w>
не сли</w>
не пло
не очевид
не одно
не мало</w>
не м
не движи
началь нику</w>
нача ть</w>
нау н
насыщен ным</w>
настав ника</w>
наследи ю</w>
направ л
нако плен
назна чение</w>
нагруз ка</w>
награ ждаются</w>
навы ками</w>
нав тики</w>
наблюда тельный</w>
на ступа
на оборот</w>
н та</w>
н сть</w>
н z
н Z
н R
мусо р</w>
музы ку</w>
мотива ция</w>
моро з
моло де
мол дав
моисе ев</w>
моду лей</w>
модерни зации</w>
мо его</w>
много кана
млад ший</w>
михай лов</w>
митрополи т</w>
миро вом</w>
мино логии</w>
министер ств</w>
мини мум</w>
мило сер
мигра ционной</w>
ми хе
ми те</w>
ми ело
мехатро ника</w>
механи ческой</w>
мето дом</w>
металли ческих</w>
меро й</w>
мер ч</w>
мер ной</w>
мер но</w>
менедже р</w>
мене ния</w>
междисциплинар ный</w>
меди ко</w>
меди й
ме ти
ме рах</w>
ме л
ме дж
мгновен но</w>
мастер ству</w>
мастер ство</w>
мастер ской</w>
массо вые</w>
маркетин г</w>
мар тыненко</w>
мар ского</w>
мар с</w>
мар гари
малоразмер ного</w>
магни тно</w>
мавлю шев</w>
ма нов</w>
ма ли</w>
ма к</w>
м хов</w>
м ф</w>
м ра
м в
лё тно</w>
любо пы
любо вью</w>
люби тели</w>
люби мым</w>
люб лю</w>
ль на</w>
луче й</w>
луч шему</w>
луч шей</w>
лу кин</w>
логи ческое</w>
логи ческие</w>
ло с</w>
ло гам</w>
личност ных</w>
лице е</w>
линей ки</w>
лидер ы</w>
ли ш
ли ц
ли ния</w>
ли ди
лета ть</w>
лен ности</w>
лекар ств</w>
лек циях</w>
лек тор</w>
ле тов</w>
ле то</w>
ле нина</w>
ле ги
ланд шаф
лактальдеги д</w>
лазер ные</w>
лагу на</w>
лагер ь</w>
ла да</w>
л уча
л с</w>
л ки
л ве
курсов ку</w>
курсо вки</w>
кур сни
культуро логия</w>
кули нар
куйбыше ва</w>
куб са
куб ка</w>
ку пить</w>
ку куру
ксо ми
кры ла
круг лых</w>
круг лом</w>
кри стал
креа тивного</w>
краевед ческое</w>
кра тно</w>
космо сом</w>
космо дром</w>
королёв тех</w>
координа ционного</w>
концеп цию</w>
конфли кта</w>
контро льной</w>
консуль тирова
консу льти
конструи рование</w>
консорци ум</w>
конкур су</w>
комплекс ных</w>
комплек сом</w>
коммуника ция</w>
коммен тарии</w>
коми ссия</w>
коми ссий</w>
команд ная</w>
коллектив е</w>
коллек ция</w>
коллек ций</w>
количе ству</w>
ко лы
ко ди
ко де
ко вым</w>
ко во
ко ваться</w>
кни ту</w>
клю ч</w>
клу бы</w>
кле ток</w>
клас сами</w>
кла стер</w>
кла да</w>
кита й</w>
кино показ</w>
кибер ленин
кибер безопасности</w>
ки рги
ки ов</w>
кей сами</w>
квалифицирован ных</w>
каче ственных</w>
каче ственного</w>
ката ли
карто граф</w>
кано э</w>
каж д
ка ком</w>
ка ков
ка ет</w>
ка дра
ка д</w>
ка ве
ка бин
к п</w>
к мо
к лет
й ским</w>
й дет</w>
истори ческом</w>
исследователь скую</w>
исследова нием</w>
исследова ли</w>
иссле од
использу ют</w>
использу емых</w>
использова ли</w>
искус ствен
ис сл
ион ные</w>
интерес ный</w>
интерес ного</w>
интерес на</w>
интере совали</w>
интер нета</w>
инстру менталь
иностран ным</w>
инициа тивных</w>
инициа тивах</w>
инжиниринго вый</w>
инженер ными</w>
инженер ном</w>
инжене ром</w>
инжене рам</w>
индивидуаль ное</w>
инвалид ностью</w>
ин три
ими джа</w>
име ющихся</w>
име ющиеся</w>
име ли</w>
им про
им пер
иль и</w>
изуча ет</w>
избе жать</w>
иго ревна</w>
ивану шкина</w>
и щ
и стреби
и сти
и сте
и ра
зу бов</w>
зо ологии</w>
зо ж</w>
зна ют</w>
зна ет</w>
зим нем</w>
зем сков</w>
зем ные</w>
здоро вый</w>
зда м</w>
защи тить</w>
зачис лены</w>
запу стил</w>
запа тен
занима лись</w>
заме нить</w>
закон ного</w>
задействова ны</w>
задача м</w>
загряз нения</w>
загру зи
заверши лось</w>
заверши ли</w>
завер шая</w>
заведу ющего</w>
за чет</w>
за торов</w>
за рекомендова
за ли</w>
за кам
за груз
за ва
з вена</w>
журнали сты</w>
жизнен ные</w>
жи н</w>
же ст
жден о</w>
ж ную</w>
ж ность</w>
ж им</w>
ж дёт</w>
ж ду</w>
естественно научного</w>
ен ной</w>
ен ер
ежедне вно</w>
еже меся
еди ное</w>
е пи
е нии</w>
е л</w>
е ка
е дн
е д</w>
е горова</w>
е вым</w>
ды й</w>
духо м</w>
ду ше</w>
ду р
дру гая</w>
доцен том</w>
доступ ных</w>
достиже нию</w>
достигну том</w>
достигну та</w>
дости га
дополни тельная</w>
донор ская</w>
доно рам</w>
долго ждан
докумен тами</w>
доказа ли</w>
догово рен
добро во
добави ла</w>
до р
до мом</w>
дн х</w>
дистан ционный</w>
диссер тацию</w>
дие тическим</w>
диагности ку</w>
дея тель</w>
деталь но</w>
дет стве</w>
дере во</w>
депута т</w>
денеж ных</w>
делен ы</w>
деко рации</w>
дей ствуют</w>
де фици
де во
де бю
двой ников</w>
двадца ть</w>
датчи ки</w>
дар ственного</w>
да те</w>
да ст</w>
да вать</w>
д ре</w>
д ную</w>
д н</w>
д ку</w>
д ки</w>
гумани тари
губерна тором</w>
гру шина</w>
гру шин</w>
гру зо
григори й</w>
гри го
графи ческий</w>
гранто вого</w>
гра фы</w>
гра витации</w>
государствен ная</w>
горо ду</w>
гор ного</w>
гор лов</w>
го ры</w>
го рения</w>
глубин е</w>
глоб альные</w>
глоб альной</w>
глоб ального</w>
гиро ста
гиперспектро метр</w>
гипер го
гиб кость</w>
гиб кий</w>
ги ческих</w>
ги ган
ге й
гага рин</w>
гага рин
га ют</w>
га нова</w>
га й
вьетна ме</w>
выя сни
вычисли тельных</w>
выступле ниями</w>
высоко эффективные</w>
высоко скорост
высо кими</w>
вырос ло</w>
выпуска емых</w>
выпол нении</w>
выигра ть</w>
выз вала</w>
выез дная</w>
выда ющегося</w>
выда ет</w>
выгля дит</w>
вы ходи
вы ходе</w>
вы ход</w>
вы зывает</w>
вы жи
вы воды</w>
вы вода</w>
вы ве
вши йся</w>
вто рым</w>
впло ть</w>
восто ка</w>
воспомина ний</w>
воспи тан
вос станови
волонтер ская</w>
волей бол</w>
волго град
вол новых</w>
вол нова
вол ни
вол кова</w>
вол ги</w>
возмож ным</w>
возгла вил</w>
возвра щении</w>
воз духа</w>
воз действием</w>
вовле чё
вовле чению</w>
во шёл</w>
во пр
во ва</w>
внутрен ние</w>
внима тельно</w>
внеш них</w>
вля ются</w>
вля ем</w>
владими ровича</w>
вклю чён</w>
вклю чена</w>
вкла ды
вкла да</w>
виртуаль ной</w>
визу альной</w>
види т</w>
виде ние</w>
ви нто
взрос лые</w>
взаимо помощи</w>
взаимо действию</w>
вершин ы</w>
веро ника</w>
верну лась</w>
вер ность</w>
вели кую</w>
ведё тся</w>
веде м</w>
ве сти
ве ков</w>
ве га</w>
вдохнове нием</w>
вдохно вить</w>
валер ьевна</w>
валер ьевич</w>
важ ного</w>
ва ших</w>
ва ля</w>
ва к</w>
в хода</w>
в ро
в носят</w>
в ник</w>
в кой</w>
в днх</w>
в ди
бы тие</w>
бы вает</w>
буду щ
бу к
брон зу</w>
брен да</w>
боле ль
бой цов</w>
бое припа
бое вые</w>
бо ю</w>
бле ние</w>
благо да
бла сти</w>
био инженерии</w>
бизне се</w>
би т</w>
би леты</w>
би атло
бер ут</w>
бело русский</w>
безвер хов</w>
бе сс
баскет болу</w>
бас сей
балан са</w>
базо вые</w>
ба шки
ба че
ба р</w>
ба з</w>
б ям</w>
б гту</w>
аэро динамики</w>
ауди тор
атмо сферой</w>
аспиран там</w>
ас эу</w>
архи ви
архе о
ар тура</w>
ар та
ар мии</w>
ар ктике</w>
апро ба
аппара туру</w>
аппара те</w>
аппара тах</w>
антро поморф
антони ны</w>
ансамб ля</w>
аналого вой</w>
аналити ческое</w>
анализи рует</w>
ана то
аль ную</w>
алгорит мы</w>
ал ма
актуаль ная</w>
акту али
академи ей</w>
аз мом</w>
адре са</w>
администра тивного</w>
автор ской</w>
автоном ное</w>
автомати ческих</w>
авто рами</w>
авто ма
авиацион но</w>
авиа ция</w>
авиа космических</w>
аб ду
а ют</w>
а уч
а сте
а ры</w>
а рома
а ро
а ре
а па
а ну
а ла
you r</w>
xx xi</w>
xx v</w>
xv ii</w>
we e
wee k</w>
v en
u b</w>
tur e</w>
ti cal</w>
t е
sp rin
sprin g
so ft</w>
russi a</w>
ra n
on or
o r</w>
na u
n os
me di
la b</w>
k о
j о
h o
gineer ing</w>
g bi
gbi f</w>
fe ed
feed back</w>
en g
e о
e l</w>
cata l
c tion</w>
c m
b bb</w>
ad er</w>
a t
a n</w>
a m
_pa d</w>
Z и
U и</w>
S и
A а</w>
90 301d</w>
9 3</w>
7 00</w>
6 7
6 2</w>
54 71</w>
5 d</w>
5 9
450 301d</w>
40 0
4 d</w>
3 50</w>
3 37</w>
3 17</w>
200 9</w>
20 2</w>
20 11</w>
2 60</w>
15 1</w>
13 91</w>
10 3</w>
. ;</w>
) ".</w>
) ",</w>
ё х</w>
ё нка</w>
яр ко</w>
явля лся</w>
я сно</w>
я к</w>
я й
я бря</w>
юри ста</w>
юри ст</w>
юри н</w>
юр ьевич</w>
юж но</w>
ю сти
ю л
ю дин</w>
ю ат</w>
эстафе ты</w>
энтузи азмом</w>
энергети ческое</w>
энерге тика</w>
эн цикло
электро магни
экстрема льных</w>
экспеди ции</w>
эко система</w>
экза мена</w>
эк п
эк ва
эй зон
э ф</w>
э ск
э о</w>
э миссии</w>
э ль</w>
ью нити</w>
ь ного</w>
ы нй</w>
ы не</w>
ъю нк
щи йся</w>
щен ко</w>
щело чкова</w>
ща яся</w>
ща к</w>
школь ных</w>
школь ной</w>
школь ника</w>
шек спи
шекспи ра</w>
ше сти
ше вского</w>
ша ют</w>
ша ры
шары чен
ша ков</w>
ш ко</w>
ш ка
ш ер
чё т
чувству ю</w>
чу й
чуй ко</w>
чте ние</w>
чита л</w>
числен ность</w>
чир ков</w>
чи х</w>
чи нин</w>
четыр ёх</w>
четвер тый</w>
ческ хи</w>
чес в
чер кнул</w>
чен ной</w>
челове ческой</w>
че са
че ло
ча р
ча ми</w>
ч ских</w>
ч ка
цифрови зация</w>
цифро выми</w>
цифро вым</w>
циви лизации</w>
циаль но</w>
ци лин
ци и
целе н</w>
целе вое</w>
це н</w>
ца т</w>
ц нет</w>
художе ственной</w>
хоро шую</w>
хоро шие</w>
хоре о
холо да</w>
ходя щего</w>
хле б</w>
харь ковской</w>
харак тер
х э
х х
х уже</w>
х ло
х гал
фундаменталь ная</w>
фро нт</w>
француз ского</w>
фото нного</w>
фоку се</w>
фо нова</w>
финали стами</w>
финали ст
фина н
фина льной</w>
фина льного</w>
филь мов</w>
фило логов</w>
фило логи</w>
фили нов</w>
физ тех</w>
фи то
фи пс</w>
федераль ному</w>
федераль ное</w>
федераль ная</w>
федера ций</w>
фед ры</w>
фе ти
фе одо
фарма цев
фа ми
ф м</w>
ф гу
фгу п</w>
учё том</w>
учё ного</w>
учрежде ниями</w>
учре ди
учи ты
уче ница</w>
участни цы</w>
уча тс
уча ствующих</w>
уфи м
уф ы</w>
уточ нить</w>
утвер жден</w>
успеха ми</w>
успе хом</w>
успе ть</w>
упраж нений</w>
уникаль ного</w>
униевр ситета</w>
унивре ситет</w>
университет ский</w>
университе тскую</w>
универси ета</w>
униве ситета</w>
уни ер
уни в
унви ерситета</w>
ун верситет</w>
уме нии</w>
ум ные</w>
укрепля ть</w>
указа нием</w>
удосто ены</w>
удосто ена</w>
удосто вер
удиви тельно</w>
уделя лось</w>
уголо вное</w>
углуб лен
углерод ных</w>
углекисло го</w>
увлека тельные</w>
увлека тельно</w>
увиде ла</w>
увиде л</w>
у шёл</w>
у трен
у тра
у та</w>
у ступа
у ст</w>
у ры</w>
у р</w>
у помина
у много</w>
у зе
у ет</w>
у де
у гла
тё пло
тяже лых</w>
тяже лые</w>
тяже лой</w>
тя тся</w>
тю бин
ть яс</w>
ть юри
ты ми</w>
тури стов</w>
тур ного</w>
туполе ва</w>
тсу дентов</w>
тру дом</w>
тру дов</w>
тро й
трена жё
трен дов</w>
требова ний</w>
трансля ция</w>
транс ли
традицион ным</w>
тра в
точ ным</w>
тохтамыш а</w>
то я
то мни
томни кова</w>
тни кова</w>
титу л</w>
тиру ем</w>
тирова л</w>
тимофе й</w>
тив шие</w>
ти ь</w>
ти ческое</w>
ти тута</w>
ти по
техно ген
тес ное</w>
тер ро
тер ен
тепло й</w>
теорети ческого</w>
теорети ческий</w>
теорети ческая</w>
теоре тических</w>
тенни с</w>
темпера туре</w>
темати ческим</w>
темати ческий</w>
тель ному</w>
теле фона</w>
теку щего</w>
те тов</w>
те све
тесве л</w>
те ей</w>
творче скому</w>
твер ского</w>
татья ны</w>
тан ты</w>
таль ной</w>
талантли вые</w>
так еж</w>
та ций</w>
та ния</w>
та н</w>
та мара</w>
т чо</w>
т со
т ских</w>
т се
т пле
тпле й
т п</w>
т ль
т ло
т ве</w>
т r
т Y
т L
сызран ь</w>
съез де</w>
сцен ы</w>
схе му</w>
сур кова</w>
судеб ной</w>
су дно</w>
студен чество</w>
студен ческ
студ туризм</w>
сту дет
строи тся</w>
строи тельстве</w>
строи тельной</w>
строи лся</w>
стро м</w>
стро или</w>
стреми мся</w>
стре сс</w>
стре лко
стратеги ческая</w>
страни цах</w>
стра ция</w>
столк нове
столи цы</w>
стои мости</w>
сто лов</w>
стипенди ю</w>
стимули рование</w>
сти ли
стере оти
стере о
ствен ности</w>
старта па</w>
стара ются</w>
стара лись</w>
стандар та</w>
стаби ли
ста вить</w>
ст ро</w>
ст ре</w>
ст ной</w>
ссыл ка</w>
ссу зов</w>
сред ней</w>
спут никах</w>
способо в</w>
способ ствовало</w>
способ ного</w>
спосо бами</w>
споко й
специализи руется</w>
специали тет</w>
спек тре</w>
спек так
спе т
спартакиа ды</w>
спартакиа да</w>
социологи ческий</w>
сохраня ет</w>
состоя тся</w>
соста ву</w>
сост я
соревнова ниями</w>
сопроти вление</w>
сопрово ждении</w>
соответству ющей</w>
сообще ние</w>
сол да
созда ётся</w>
созда ёт</w>
современ ность</w>
современ ности</w>
совмести тельству</w>
совет ские</w>
собствен ная</w>
соблюде нием</w>
соблюде ние</w>
соб ственно</w>
со чи</w>
со тр
со сто
со про
со п
со отечествен
со н</w>
со во
со боле
сни жения</w>
сни жает</w>
сне жного</w>
смотри м</w>
смотре ли</w>
смо дели
сме ша
сме сь</w>
сме лые</w>
см с</w>
слуша телям</w>
случа йно</w>
служе б
слу жить</w>
слу жением</w>
слож ность</w>
следу ющей</w>
сле дили</w>
сле д</w>
сл училось</w>
скоро стью</w>
ско пи
ска ми</w>
ска жите</w>
ска жем</w>
ск м</w>
систем ной</w>
систем но</w>
синер гии</w>
син хро
силь ная</w>
сило вой</w>
сик х</w>
сиби ри</w>
си те</w>
си сет
си о</w>
си н</w>
си м</w>
сз пу</w>
сете вых</w>
серьёз ный</w>
серьез но</w>
серебря ные</w>
серге евича</w>
сер а</w>
семей ного</w>
секун ды</w>
секун д</w>
секре та
се реб
се ние</w>
се м</w>
се ла</w>
се ктором</w>
се ев</w>
се дова
се гмен
свидетель ствует</w>
свет ла
сверх легкой</w>
све жий</w>
св тен
сборо чных</w>
сбере жение</w>
сау тина</w>
сарато вского</w>
сарато вский</w>
сана тории</w>
самостоя тельной</w>
само лет
самар сокго</w>
самар сого</w>
са ти</w>
са мую</w>
са ар
с ё
с ф</w>
с ф
с сы</w>
с сите
с прогнозировать</w>
с мен
с вар
свар ки</w>
с x
с a
с U
с P
с O
с K
с A
ря ду</w>
рымар ь</w>
ры жи
ры ба
рус ских</w>
рубе же</w>
росси ян</w>
роскосмо са</w>
розен та
ров ский</w>
ров ку</w>
роботизирован ного</w>
ро т</w>
ро сто
ро зно</w>
ро дом</w>
ро грам
ро го</w>
ро го
рк ы
ри т</w>
ри ска</w>
ресур со
республи ке</w>
рели ги
рекла м
результа та</w>
рез ко</w>
ред ко</w>
региональ ное</w>
реаги рует</w>
ре гла
ре ави
реави з</w>
ре абили
раст ёт</w>
раст ет</w>
рассчи тан
распре деля
распре делились</w>
распре деления</w>
распре деление</w>
распа да</w>
рас т</w>
рас следова
рас сея
раманов ской</w>
разрабатыва ем</w>
разме щение</w>
разме щать</w>
разме ров</w>
различи я</w>
различ ной</w>
разви вают</w>
раз дел</w>
раз во
раз в
работа я</w>
работа ми</w>
работ ника</w>
ра ф</w>
ра тов</w>
ра ри
ра л</w>
ра ии</w>
ра дова
р те
р та</w>
р ство</w>
р ства</w>
р ное</w>
р ка</w>
р б
р z
р h
р c
пя тер
пуч ки</w>
пунк ты</w>
пун кт</w>
публика ционной</w>
пу шкин</w>
пу шки
пти ц</w>
психо л
пря мом</w>
пря мого</w>
проща ние</w>
прошед шего</w>
прош лых</w>
прочита л</w>
проце ссо
проходи вшей</w>
прохо ждении</w>
профориента ционных</w>
профи ль</w>
профессиона лами</w>
професси ях</w>
професси ей</w>
протоко л</w>
противопоказа ний</w>
простран ственного</w>
просве ти
проры в</w>
прокура туры</w>
прой дя</w>
проис ходило</w>
произо шло</w>
производ ственным</w>
произ ведений</w>
проек тный</w>
проек тные</w>
продолжи ли</w>
продемонстри ровал</w>
продви жение</w>
прогре сси
программи рования</w>
проводи мых</w>
проводи лось</w>
провин ция</w>
провер или</w>
провайде ром</w>
пробле мой</w>
пробле мах</w>
про является</w>
про чных</w>
про чности</w>
про спек
про ле
про бе
причи нам</w>
приходи лось</w>
присут ствующих</w>
присут ствует</w>
присут ствия</w>
присужда ется</w>
присво ено</w>
приори тета</w>
приня тии</w>
приня тие</w>
прило жений</w>
призна тельность</w>
призна н</w>
приз му</w>
приз вал</w>
прие мо
привет ственными</w>
прибор ный</w>
прибли зи
при им
прести жа</w>
преподаватель ского</w>
преподава телем</w>
препод ва
прекрас ные</w>
прекрас ной</w>
прекрас ная</w>
презен тацией</w>
презен та
преем ственность</w>
предстоя ло</w>
представлен о</w>
представи в</w>
предприя тием</w>
предпринима тели</w>
предоставля ют</w>
предоставлен ную</w>
предоста влена</w>
предме тов</w>
предме тные</w>
предложи ла</w>
предложен ных</w>
пред пос
превра ти
пре пят
пре образова
пре кра
пре взо
практи ческом</w>
практи ками</w>
прави тель
пра к
пра ве</w>
появи тся</w>
поче тное</w>
пото ке</w>
пото ка</w>
потенциаль ные</w>
пот ряса
поступле нию</w>
поставлен ных</w>
последова тельно</w>
послед ствия</w>
послед него</w>
после поле
посвящё нной</w>
порта ла</w>
поро шко
попы тки</w>
популяр ных</w>
популяр ного</w>
попа л</w>
понрави лась</w>
понима нию</w>
понима нием</w>
понима ешь</w>
помощ ник</w>
полё тах</w>
поляри зова
поль зой</w>
получи лся</w>
получа ли</w>
полупроводни ковых</w>
полупроводни ковый</w>
положи тельных</w>
поло жений</w>
поло жении</w>
поло жением</w>
поло вина</w>
поли технического</w>
полез ными</w>
полез но</w>
пол ным</w>
пол ная</w>
поку па
поколе ниями</w>
поко ря
показа ло</w>
пока зы</w>
позна нии</w>
позна ком
позволя ющей</w>
подхо дах</w>
подума ть</w>
подтвер дить</w>
подпис ь</w>
подоб ного</w>
поддержи т</w>
поддержи вали</w>
подготовлен ные</w>
подви ге</w>
пода чей</w>
пода ли</w>
под ъ
под вер
повседне вности</w>
поверх ност
поведен ческих</w>
по является</w>
по ход</w>
по ул
по строение</w>
по слушать</w>
по служи
по разила</w>
по пытаться</w>
по пу
по п
по неде
понеде льник</w>
по лях</w>
по кор
по кло
по гло
по влияет</w>
по вез
повез ло</w>
пло в
платонов ские</w>
пла вание</w>
пия тия</w>
писа ли</w>
пило т</w>
пиксе ль</w>
пи р
пи оне
пи л</w>
петербург ском</w>
пес ней</w>
периоди ческих</w>
перио да</w>
передо выми</w>
пере ры
пере ез
пере воз
пер ми</w>
педаго гам</w>
пе щ
пе тру
пе р</w>
пе ла
патриоти зм</w>
патри о
пассажи ров</w>
партнер ство</w>
партнер стве</w>
партне р</w>
памя тник</w>
па шков</w>
па т
па спорт</w>
па ви
п цат</w>
п ти</w>
п и</w>
п гас</w>
п i
ощу ща
оши ба
ошиба ться</w>
оцени вают</w>
оцени вали</w>
охра не</w>
охва тила</w>
оформ ление</w>
отсут ствии</w>
отста ива
отобран ных</w>
ото рые</w>
отноше ниях</w>
отмеча ют</w>
отмети м</w>
отлича ются</w>
отлич ную</w>
отлич ников</w>
отлич ная</w>
открыты е</w>
откры тиям</w>
откро ет</w>
отды ха
отде льной</w>
отде льная</w>
отверсти й</w>
отве тили</w>
от работать</w>
от м</w>
от кр
от кло
от каза
от ка
от к
осуществля ть</w>
оста нутся</w>
оста нется</w>
оста лось</w>
оста вить</w>
оста вила</w>
осозна нно</w>
особы м</w>
особен ностями</w>
осо бая</w>
основа нный</w>
основа ния</w>
основ ную</w>
освое нию</w>
ос но
ос вр</w>
оружи е</w>
ориентирова ны</w>
оригина льный</w>
организова ли</w>
орга ны</w>
орга н</w>
ор де
опы ту</w>
опы тным</w>
опы тного</w>
опублико вал</w>
оптими зировать</w>
опо ра</w>
опера ция</w>
опера тивность</w>
она х</w>
он ференции</w>
ологи ческие</w>
оле си</w>
октябр е</w>
оказа ния</w>
оказа ние</w>
ок са
озер а</w>
оз во
ожида ют</w>
ожи дает</w>
ожи влен
одобе ску</w>
одно класс
одиннадца ти</w>
ого нь</w>
обы чной</w>
объясня ть</w>
объединя ющий</w>
объединя ющая</w>
объедини ли</w>
объеди нё
объ ё
обучающи йся</w>
обследова ние</w>
образова нием</w>
образо вы
образо ав
образ ный</w>
образ и
оборо нно</w>
облада тель</w>
обл сти</w>
обеспечи вают</w>
об ы</w>
об учен
об уч
об усло
об с
об ли
об л</w>
о ы
о стри
о сти</w>
о сси
о се
о платы</w>
о л</w>
о ке
о де
о во
о вз
о вания</w>
о ао</w>
нюан сах</w>
нц фм</w>
нуи верситета</w>
нуж д</w>
ну три
ну ли</w>
нсти тута</w>
ноч ью</w>
нормати в</w>
новост ями</w>
нового дних</w>
ново куйбышевс
ново введение</w>
новей шие</w>
но логии</w>
ния у</w>
ниок р</w>
низ кой</w>
низ ко
ниже городского</w>
ни цу</w>
ни цей</w>
ни це</w>
ни те</w>
ни ке
несовершеннолет ним</w>
необходи мое</w>
нен ной</w>
немец ком</w>
немец кий</w>
нейросете вые</w>
незабывае мый</w>
не ё</w>
не терпением</w>
не сти</w>
не с
не повтори
не ия</w>
не и</w>
начина ет</w>
началь ником</w>
нач нё
нач нутся</w>
националь ностей</w>
националь ная</w>
наце лена</w>
науч и
насыщен ную</w>
настояще м</w>
насто льный</w>
настав ники</w>
настав никами</w>
нару ше
нар па
напомина ет</w>
написа нии</w>
надеж ности</w>
надеж ду</w>
на чин
на чер
на цио
на ци
на целен</w>
на хождение</w>
на ходят</w>
на строением</w>
